{
    "0": "\u0000",
    "1": "\u0001",
    "2": "\u0002",
    "3": "\u0003",
    "4": "\u0004",
    "5": "\u0005",
    "6": "\u0006",
    "7": "\u0007",
    "8": "\b",
    "9": "\t",
    "10": "\n",
    "11": "\u000b",
    "12": "\f",
    "13": "\r",
    "14": "\u000e",
    "15": "\u000f",
    "16": "\u0010",
    "17": "\u0011",
    "18": "\u0012",
    "19": "\u0013",
    "20": "\u0014",
    "21": "\u0015",
    "22": "\u0016",
    "23": "\u0017",
    "24": "\u0018",
    "25": "\u0019",
    "26": "\u001a",
    "27": "\u001b",
    "28": "\u001c",
    "29": "\u001d",
    "30": "\u001e",
    "31": "\u001f",
    "32": " ",
    "33": "!",
    "34": "\"",
    "35": "#",
    "36": "$",
    "37": "%",
    "38": "&",
    "39": "'",
    "40": "(",
    "41": ")",
    "42": "*",
    "43": "+",
    "44": ",",
    "45": "-",
    "46": ".",
    "47": "/",
    "48": "0",
    "49": "1",
    "50": "2",
    "51": "3",
    "52": "4",
    "53": "5",
    "54": "6",
    "55": "7",
    "56": "8",
    "57": "9",
    "58": ":",
    "59": ";",
    "60": "<",
    "61": "=",
    "62": ">",
    "63": "?",
    "64": "@",
    "65": "A",
    "66": "B",
    "67": "C",
    "68": "D",
    "69": "E",
    "70": "F",
    "71": "G",
    "72": "H",
    "73": "I",
    "74": "J",
    "75": "K",
    "76": "L",
    "77": "M",
    "78": "N",
    "79": "O",
    "80": "P",
    "81": "Q",
    "82": "R",
    "83": "S",
    "84": "T",
    "85": "U",
    "86": "V",
    "87": "W",
    "88": "X",
    "89": "Y",
    "90": "Z",
    "91": "[",
    "92": "\\",
    "93": "]",
    "94": "^",
    "95": "_",
    "96": "`",
    "97": "a",
    "98": "b",
    "99": "c",
    "100": "d",
    "101": "e",
    "102": "f",
    "103": "g",
    "104": "h",
    "105": "i",
    "106": "j",
    "107": "k",
    "108": "l",
    "109": "m",
    "110": "n",
    "111": "o",
    "112": "p",
    "113": "q",
    "114": "r",
    "115": "s",
    "116": "t",
    "117": "u",
    "118": "v",
    "119": "w",
    "120": "x",
    "121": "y",
    "122": "z",
    "123": "{",
    "124": "|",
    "125": "}",
    "126": "~",
    "127": "\u007f",
    "128": "\u0080",
    "129": "\u0081",
    "130": "\u0082",
    "131": "\u0083",
    "132": "\u0084",
    "133": "\u0085",
    "134": "\u0086",
    "135": "\u0087",
    "136": "\u0088",
    "137": "\u0089",
    "138": "\u008a",
    "139": "\u008b",
    "140": "\u008c",
    "141": "\u008d",
    "142": "\u008e",
    "143": "\u008f",
    "144": "\u0090",
    "145": "\u0091",
    "146": "\u0092",
    "147": "\u0093",
    "148": "\u0094",
    "149": "\u0095",
    "150": "\u0096",
    "151": "\u0097",
    "152": "\u0098",
    "153": "\u0099",
    "154": "\u009a",
    "155": "\u009b",
    "156": "\u009c",
    "157": "\u009d",
    "158": "\u009e",
    "159": "\u009f",
    "160": "\u00a0",
    "161": "\u00a1",
    "162": "\u00a2",
    "163": "\u00a3",
    "164": "\u00a4",
    "165": "\u00a5",
    "166": "\u00a6",
    "167": "\u00a7",
    "168": "\u00a8",
    "169": "\u00a9",
    "170": "\u00aa",
    "171": "\u00ab",
    "172": "\u00ac",
    "173": "\u00ad",
    "174": "\u00ae",
    "175": "\u00af",
    "176": "\u00b0",
    "177": "\u00b1",
    "178": "\u00b2",
    "179": "\u00b3",
    "180": "\u00b4",
    "181": "\u00b5",
    "182": "\u00b6",
    "183": "\u00b7",
    "184": "\u00b8",
    "185": "\u00b9",
    "186": "\u00ba",
    "187": "\u00bb",
    "188": "\u00bc",
    "189": "\u00bd",
    "190": "\u00be",
    "191": "\u00bf",
    "192": "\u00c0",
    "193": "\u00c1",
    "194": "\u00c2",
    "195": "\u00c3",
    "196": "\u00c4",
    "197": "\u00c5",
    "198": "\u00c6",
    "199": "\u00c7",
    "200": "\u00c8",
    "201": "\u00c9",
    "202": "\u00ca",
    "203": "\u00cb",
    "204": "\u00cc",
    "205": "\u00cd",
    "206": "\u00ce",
    "207": "\u00cf",
    "208": "\u00d0",
    "209": "\u00d1",
    "210": "\u00d2",
    "211": "\u00d3",
    "212": "\u00d4",
    "213": "\u00d5",
    "214": "\u00d6",
    "215": "\u00d7",
    "216": "\u00d8",
    "217": "\u00d9",
    "218": "\u00da",
    "219": "\u00db",
    "220": "\u00dc",
    "221": "\u00dd",
    "222": "\u00de",
    "223": "\u00df",
    "224": "\u00e0",
    "225": "\u00e1",
    "226": "\u00e2",
    "227": "\u00e3",
    "228": "\u00e4",
    "229": "\u00e5",
    "230": "\u00e6",
    "231": "\u00e7",
    "232": "\u00e8",
    "233": "\u00e9",
    "234": "\u00ea",
    "235": "\u00eb",
    "236": "\u00ec",
    "237": "\u00ed",
    "238": "\u00ee",
    "239": "\u00ef",
    "240": "\u00f0",
    "241": "\u00f1",
    "242": "\u00f2",
    "243": "\u00f3",
    "244": "\u00f4",
    "245": "\u00f5",
    "246": "\u00f6",
    "247": "\u00f7",
    "248": "\u00f8",
    "249": "\u00f9",
    "250": "\u00fa",
    "251": "\u00fb",
    "252": "\u00fc",
    "253": "\u00fd",
    "254": "\u00fe",
    "255": "\u00ff",
    "256": "e ",
    "257": "s ",
    "258": "th",
    "259": "in",
    "260": "er",
    "261": "an",
    "262": "d ",
    "263": "t ",
    "264": "on",
    "265": ", ",
    "266": "the ",
    "267": "ar",
    "268": "or",
    "269": "en",
    "270": "y ",
    "271": "al",
    "272": "o ",
    "273": "ou",
    "274": "ti",
    "275": ": ",
    "276": "a ",
    "277": "ing",
    "278": "re",
    "279": "f ",
    "280": ". ",
    "281": "and ",
    "282": "of ",
    "283": "is ",
    "284": "ed ",
    "285": "es",
    "286": "ing ",
    "287": "to ",
    "288": "ic",
    "289": "at",
    "290": "er ",
    "291": "in ",
    "292": "st",
    "293": "om",
    "294": "on ",
    "295": "es ",
    "296": "\n\n",
    "297": "el",
    "298": "at ",
    "299": "ac",
    "300": "or ",
    "301": "it",
    "302": "ser",
    "303": "il",
    "304": "mon",
    "305": "Al",
    "306": "as",
    "307": "as ",
    "308": "an ",
    "309": "am",
    "310": "d: ",
    "311": "ow",
    "312": "\nAl",
    "313": "\n\nU",
    "314": "ser: ",
    "315": "\nAlmon",
    "316": "\nAlmond: ",
    "317": "\n\nUser: ",
    "318": "ol",
    "319": "h ",
    "320": "is",
    "321": "al ",
    "322": "ec",
    "323": "Th",
    "324": "ro",
    "325": "pl",
    "326": "all",
    "327": "wh",
    "328": "are ",
    "329": "en ",
    "330": "us",
    "331": "ur",
    "332": "ati",
    "333": "di",
    "334": "th ",
    "335": "si",
    "336": "et",
    "337": "you",
    "338": "ve ",
    "339": "ri",
    "340": ".\n\nUser: ",
    "341": "em",
    "342": "ch",
    "343": "ir",
    "344": "li",
    "345": "Wh",
    "346": "ul",
    "347": "?\nAlmond: ",
    "348": "un",
    "349": "ag",
    "350": "for ",
    "351": "le",
    "352": "s, ",
    "353": "The ",
    "354": "ab",
    "355": "ent",
    "356": "k ",
    "357": "wi",
    "358": "ad",
    "359": "of the ",
    "360": "n ",
    "361": "os",
    "362": "e, ",
    "363": "that ",
    "364": "ap",
    "365": "ex",
    "366": "tr",
    "367": "op",
    "368": "ver",
    "369": "um",
    "370": "com",
    "371": "oo",
    "372": "ent ",
    "373": "pro",
    "374": "ig",
    "375": "l ",
    "376": "con",
    "377": "uc",
    "378": "sh",
    "379": "ed",
    "380": "ay",
    "381": "with ",
    "382": "oun",
    "383": "fr",
    "384": "ak",
    "385": "you ",
    "386": "in the ",
    "387": "- ",
    "388": "it ",
    "389": "om ",
    "390": "ha",
    "391": "sp",
    "392": "id",
    "393": "oc",
    "394": "ter",
    "395": "was ",
    "396": "for",
    "397": "ere ",
    "398": "le ",
    "399": "be ",
    "400": "ar ",
    "401": "r ",
    "402": "the",
    "403": "ce ",
    "404": "ff",
    "405": "im",
    "406": "ly ",
    "407": "se",
    "408": "by ",
    "409": "p ",
    "410": "ation",
    "411": "qu",
    "412": ".\n\nUser: Wh",
    "413": "ow ",
    "414": "be",
    "415": "can ",
    "416": "per",
    "417": "ay ",
    "418": "ld ",
    "419": ", and ",
    "420": "s. ",
    "421": "from ",
    "422": "ich ",
    "423": "de",
    "424": "all ",
    "425": "tion",
    "426": "'s ",
    "427": "and",
    "428": "ne",
    "429": "ot",
    "430": "cl",
    "431": "20",
    "432": "str",
    "433": "par",
    "434": "ation ",
    "435": "est ",
    "436": "ther ",
    "437": "bu",
    "438": "ot ",
    "439": "wor",
    "440": "ts ",
    "441": "19",
    "442": "ov",
    "443": "ers ",
    "444": "ate ",
    "445": "out ",
    "446": "ain",
    "447": "man",
    "448": "pe",
    "449": "gr",
    "450": "ic ",
    "451": ".  ",
    "452": "ome ",
    "453": "I ",
    "454": "so ",
    "455": "\u00e2\u0080",
    "456": "your ",
    "457": "y, ",
    "458": "av",
    "459": "me ",
    "460": "is a ",
    "461": "res",
    "462": "tic",
    "463": "ould ",
    "464": "which ",
    "465": "have ",
    "466": "od",
    "467": "one ",
    "468": "s and ",
    "469": "ter ",
    "470": "og",
    "471": "ally ",
    "472": "ity ",
    "473": "ang",
    "474": "tion ",
    "475": "et ",
    "476": "te",
    "477": "we",
    "478": "gh",
    "479": "es, ",
    "480": "ir ",
    "481": "igh",
    "482": "ev",
    "483": "\n- ",
    "484": "a, ",
    "485": "ed to ",
    "486": "is the ",
    "487": "su",
    "488": "me",
    "489": "end",
    "490": "w ",
    "491": ". I",
    "492": "ost ",
    "493": "e of ",
    "494": ".\n\nUser: What ",
    "495": " and ",
    "496": "ut",
    "497": ". The ",
    "498": "s of ",
    "499": "iv",
    "500": "oll",
    "501": "ong",
    "502": "ud",
    "503": "Ch",
    "504": "ear",
    "505": "ore ",
    "506": "not ",
    "507": "has ",
    "508": "our",
    "509": "ill ",
    "510": "ake ",
    "511": "this ",
    "512": ".\n\n",
    "513": "bl",
    "514": "\n\nUser: Wh",
    "515": "to the ",
    "516": ") ",
    "517": "St",
    "518": "sid",
    "519": "rec",
    "520": "ph",
    "521": "ple ",
    "522": "on the ",
    "523": "ort",
    "524": "form",
    "525": "ated ",
    "526": "st ",
    "527": "their ",
    "528": "A ",
    "529": "ard",
    "530": "ame ",
    "531": "ing the ",
    "532": "own ",
    "533": "also ",
    "534": "ob",
    "535": ".\n",
    "536": "el ",
    "537": "ies ",
    "538": "anc",
    "539": "fe",
    "540": "cre",
    "541": "enc",
    "542": "po",
    "543": "ass",
    "544": "est",
    "545": "ke ",
    "546": ".\nAlmond: ",
    "547": "In",
    "548": "ep",
    "549": "s to ",
    "550": "most ",
    "551": "ese ",
    "552": "iz",
    "553": "ain ",
    "554": "bo",
    "555": "other ",
    "556": "0 ",
    "557": "ant ",
    "558": "ast",
    "559": "they ",
    "560": "co",
    "561": "pr",
    "562": ". Th",
    "563": "use ",
    "564": "fl",
    "565": "will ",
    "566": "some ",
    "567": "he",
    "568": "mer",
    "569": "ence ",
    "570": "ure ",
    "571": "more ",
    "572": "about ",
    "573": "arg",
    "574": "many ",
    "575": "eg",
    "576": "br",
    "577": "enti",
    "578": "age ",
    "579": "ood ",
    "580": "duc",
    "581": "ffer",
    "582": "Un",
    "583": "ist ",
    "584": "pre",
    "585": "er, ",
    "586": "fir",
    "587": "ell",
    "588": "ist",
    "589": "kn",
    "590": "af",
    "591": "ach ",
    "592": "ive ",
    "593": "comp",
    "594": "mar",
    "595": "s are ",
    "596": "bas",
    "597": "ure",
    "598": "ell ",
    "599": "play",
    "600": "fin",
    "601": "sc",
    "602": "ed by ",
    "603": "vid",
    "604": "ach",
    "605": "but ",
    "606": "m ",
    "607": "able ",
    "608": "do ",
    "609": "dr",
    "610": "ing, ",
    "611": "uch ",
    "612": "ad ",
    "613": "em ",
    "614": "yp",
    "615": "e. ",
    "616": "its ",
    "617": "gre",
    "618": "ey ",
    "619": "am ",
    "620": "ess",
    "621": "of",
    "622": "iti",
    "623": "comm",
    "624": "bec",
    "625": "when ",
    "626": "i ",
    "627": "ant",
    "628": "his ",
    "629": "car",
    "630": "ed in ",
    "631": "ess ",
    "632": "peo",
    "633": "ful",
    "634": "do",
    "635": "ther",
    "636": "he ",
    "637": "ous ",
    "638": "ine ",
    "639": "coun",
    "640": "like ",
    "641": "ail",
    "642": "a l",
    "643": "ion",
    "644": "differ",
    "645": "incl",
    "646": "wat",
    "647": "ast ",
    "648": "what ",
    "649": "aw",
    "650": "ord",
    "651": "bet",
    "652": "first ",
    "653": "ish",
    "654": "gh ",
    "655": "se ",
    "656": "An",
    "657": "ound ",
    "658": "if",
    "659": "ue ",
    "660": "tw",
    "661": "foll",
    "662": "ill",
    "663": "gen",
    "664": "act",
    "665": "ely ",
    "666": "ack",
    "667": "?\nAlmond: The ",
    "668": "ial ",
    "669": "up ",
    "670": "ip",
    "671": "Fr",
    "672": "ough ",
    "673": "\n\nUser: What ",
    "674": "es of ",
    "675": "au",
    "676": "min",
    "677": "owing ",
    "678": "inter",
    "679": "ect",
    "680": "go",
    "681": "ical ",
    "682": "who ",
    "683": "und",
    "684": ". S",
    "685": "ick",
    "686": ". H",
    "687": "sion",
    "688": "includ",
    "689": "ite ",
    "690": "meric",
    "691": "a s",
    "692": "our ",
    "693": "\" ",
    "694": "Americ",
    "695": "eng",
    "696": "ber ",
    "697": "hel",
    "698": "cont",
    "699": "up",
    "700": "ere are ",
    "701": "mil",
    "702": "ack ",
    "703": "2 ",
    "704": "would ",
    "705": "time ",
    "706": "es and ",
    "707": "pop",
    "708": "ch ",
    "709": "ari",
    "710": "ong ",
    "711": "dis",
    "712": "ard ",
    "713": "  ",
    "714": "people ",
    "715": ", the ",
    "716": "ght ",
    "717": "sy",
    "718": "\u00e2\u0080\u0099",
    "719": "ever",
    "720": "any ",
    "721": "dat",
    "722": "typ",
    "723": "ile ",
    "724": "king ",
    "725": "att",
    "726": "ound",
    "727": "ice ",
    "728": "the b",
    "729": "ary ",
    "730": "tiv",
    "731": "des",
    "732": "ace ",
    "733": "ose ",
    "734": "s in ",
    "735": "int",
    "736": "these ",
    "737": "gl",
    "738": "spec",
    "739": "ment ",
    "740": "a b",
    "741": "tim",
    "742": "ited ",
    "743": "were ",
    "744": "ment",
    "745": "mus",
    "746": "than ",
    "747": "ed the ",
    "748": "popul",
    "749": "if ",
    "750": "5 ",
    "751": "each ",
    "752": "s that ",
    "753": "ood",
    "754": "over ",
    "755": "vi",
    "756": "Ne",
    "757": "pres",
    "758": "from the ",
    "759": "port",
    "760": ". It ",
    "761": "out",
    "762": "art",
    "763": "such ",
    "764": "tri",
    "765": "ind",
    "766": "fy ",
    "767": "nam",
    "768": "cr",
    "769": "how ",
    "770": "ance ",
    "771": "ire",
    "772": "sk",
    "773": "act ",
    "774": "year",
    "775": "00",
    "776": "vel",
    "777": "where ",
    "778": "for the ",
    "779": "col",
    "780": "thr",
    "781": "ke",
    "782": "fam",
    "783": "loc",
    "784": "ight ",
    "785": "ort ",
    "786": "serv",
    "787": "can be ",
    "788": "following ",
    "789": "ase ",
    "790": "mo",
    "791": "ning ",
    "792": "201",
    "793": "ld",
    "794": "my ",
    "795": "fer",
    "796": "to",
    "797": "end ",
    "798": "ball ",
    "799": "way",
    "800": "ween ",
    "801": "and the ",
    "802": "make ",
    "803": "Ar",
    "804": "produc",
    "805": "ali",
    "806": "mov",
    "807": "different ",
    "808": "ub",
    "809": "1 ",
    "810": "are",
    "811": "between ",
    "812": "ational ",
    "813": "How ",
    "814": "ome",
    "815": "on, ",
    "816": "vis",
    "817": "3 ",
    "818": "ra",
    "819": "pu",
    "820": "ree ",
    "821": "o, ",
    "822": "t, ",
    "823": "En",
    "824": "In ",
    "825": "ates ",
    "826": "ans",
    "827": "as a ",
    "828": "You",
    "829": "iven ",
    "830": "should ",
    "831": "ing a ",
    "832": "id ",
    "833": "two ",
    "834": "s, and ",
    "835": "ory ",
    "836": "get ",
    "837": "reg",
    "838": "Mar",
    "839": "ause ",
    "840": "them ",
    "841": "us ",
    "842": "ust",
    "843": "Cl",
    "844": "tive ",
    "845": "United ",
    "846": "cur",
    "847": "num",
    "848": "x ",
    "849": "sec",
    "850": "t of ",
    "851": "ten ",
    "852": "iver",
    "853": "cho",
    "854": "ath",
    "855": "at the ",
    "856": "known ",
    "857": "ond",
    "858": "ed, ",
    "859": "op ",
    "860": "fi",
    "861": "into ",
    "862": "um ",
    "863": "tur",
    "864": "ing to ",
    "865": "ion ",
    "866": "land",
    "867": "olog",
    "868": "pos",
    "869": "own",
    "870": "bi",
    "871": "ish ",
    "872": "amp",
    "873": "may ",
    "874": "ber",
    "875": "Indi",
    "876": "provid",
    "877": "old",
    "878": "assi",
    "879": "pri",
    "880": "in a ",
    "881": "ity",
    "882": "such as ",
    "883": "are the ",
    "884": "dec",
    "885": "we ",
    "886": "ook ",
    "887": "best ",
    "888": "good ",
    "889": "been ",
    "890": ". A",
    "891": "org",
    "892": "inv",
    "893": "larg",
    "894": "very ",
    "895": "inc",
    "896": "bre",
    "897": "off",
    "898": "run",
    "899": "could ",
    "900": "You ",
    "901": "s the ",
    "902": "with the ",
    "903": "sel",
    "904": "g ",
    "905": "pers",
    "906": "ech",
    "907": "200",
    "908": "), ",
    "909": "4 ",
    "910": "ol ",
    "911": "ting ",
    "912": "ook",
    "913": "plan",
    "914": "oy",
    "915": "consid",
    "916": "18",
    "917": "cent",
    "918": "day",
    "919": "only ",
    "920": "s: ",
    "921": "il ",
    "922": "rap",
    "923": "ma",
    "924": "ine",
    "925": "eas",
    "926": "e and ",
    "927": "ros",
    "928": "tit",
    "929": "e the ",
    "930": "tic ",
    "931": "ect ",
    "932": "way ",
    "933": "work",
    "934": "ep ",
    "935": "requ",
    "936": "ry ",
    "937": "sol",
    "938": "mod",
    "939": "tex",
    "940": "es. ",
    "941": "cri",
    "942": "hum",
    "943": "ug",
    "944": "rel",
    "945": "ed on ",
    "946": "United St",
    "947": "her ",
    "948": ".\n\nUser: G",
    "949": "with",
    "950": "dition",
    "951": "gener",
    "952": ", S",
    "953": "'t ",
    "954": "had ",
    "955": "peri",
    "956": "ents ",
    "957": "; ",
    "958": "Le",
    "959": "sur",
    "960": "lif",
    "961": "ble ",
    "962": "ia ",
    "963": "new ",
    "964": "ful ",
    "965": "soc",
    "966": "syst",
    "967": "dur",
    "968": "buil",
    "969": "ef",
    "970": "ade ",
    "971": "ust ",
    "972": "water ",
    "973": "a c",
    "974": "es to ",
    "975": "ens",
    "976": "202",
    "977": "Jo",
    "978": "New ",
    "979": "air",
    "980": "elec",
    "981": "es are ",
    "982": "compl",
    "983": "mat",
    "984": "win",
    "985": "ily ",
    "986": ". In ",
    "987": "Ex",
    "988": "ower ",
    "989": "sum",
    "990": "high",
    "991": "it is ",
    "992": ". B",
    "993": "It ",
    "994": "rit",
    "995": "pass",
    "996": "cap",
    "997": "ket",
    "998": "after ",
    "999": "then ",
    "1000": "ly",
    "1001": "with a ",
    "1002": "ating ",
    "1003": "world",
    "1004": "acc",
    "1005": "exam",
    "1006": "vari",
    "1007": "s for ",
    "1008": ". This ",
    "1009": "some",
    "1010": "ous",
    "1011": "team",
    "1012": "lo",
    "1013": "was the ",
    "1014": "you can ",
    "1015": "oot",
    "1016": "as the ",
    "1017": "199",
    "1018": "s\n",
    "1019": "dog",
    "1020": "gam",
    "1021": "struc",
    "1022": "tre",
    "1023": "ve",
    "1024": "ear ",
    "1025": "mem",
    "1026": "through ",
    "1027": "S ",
    "1028": "American ",
    "1029": "6 ",
    "1030": "mak",
    "1031": "ys",
    "1032": "ell me ",
    "1033": "ings ",
    "1034": "take ",
    "1035": "proc",
    "1036": "while ",
    "1037": "ually ",
    "1038": "chang",
    "1039": "call",
    "1040": "an, ",
    "1041": "over",
    "1042": "Par",
    "1043": "On",
    "1044": "because ",
    "1045": "gu",
    "1046": "bel",
    "1047": "ty ",
    "1048": ". M",
    "1049": "fun",
    "1050": "cat",
    "1051": "work ",
    "1052": "app",
    "1053": "lear",
    "1054": "dri",
    "1055": "list ",
    "1056": "pol",
    "1057": "angu",
    "1058": "Sp",
    "1059": "abl",
    "1060": "try ",
    "1061": "devel",
    "1062": "star",
    "1063": "ash",
    "1064": "there ",
    "1065": "to be ",
    "1066": "sub",
    "1067": "ive me ",
    "1068": "data ",
    "1069": "ically ",
    "1070": "popular ",
    "1071": "Wor",
    "1072": "ock",
    "1073": "red ",
    "1074": "? ",
    "1075": "sm",
    "1076": "ual ",
    "1077": "does ",
    "1078": "e, and ",
    "1079": "fri",
    "1080": "around ",
    "1081": ".\n\nUser: How ",
    "1082": "let",
    "1083": "ans ",
    "1084": ", B",
    "1085": "is an ",
    "1086": "cul",
    "1087": "ah",
    "1088": "dep",
    "1089": "ise ",
    "1090": "ors ",
    "1091": "for a ",
    "1092": "import",
    "1093": "help ",
    "1094": "als ",
    "1095": "did ",
    "1096": "Con",
    "1097": "Gr",
    "1098": "\u00e2\u0080\u0099s ",
    "1099": "plac",
    "1100": "day ",
    "1101": "Sh",
    "1102": "three ",
    "1103": "bor",
    "1104": "ann",
    "1105": "s.  ",
    "1106": "used ",
    "1107": "no ",
    "1108": "sup",
    "1109": ". F",
    "1110": "ten",
    "1111": "igh ",
    "1112": "langu",
    "1113": "mi",
    "1114": "ations ",
    "1115": "leg",
    "1116": "ank",
    "1117": "erg",
    "1118": "well ",
    "1119": "hist",
    "1120": "parag",
    "1121": "de ",
    "1122": "refer",
    "1123": "e?\nAlmond: ",
    "1124": "ip ",
    "1125": "chil",
    "1126": "cer",
    "1127": "abil",
    "1128": "jo",
    "1129": "paragrap",
    "1130": "er to ",
    "1131": ".\n\nUser: What is the ",
    "1132": "fact",
    "1133": ". He ",
    "1134": "8 ",
    "1135": "tions ",
    "1136": "both ",
    "1137": "old ",
    "1138": "sl",
    "1139": "ball",
    "1140": "Nor",
    "1141": "y of ",
    "1142": "exp",
    "1143": "great ",
    "1144": "ities ",
    "1145": "tain ",
    "1146": "ative ",
    "1147": "s?\nAlmond: ",
    "1148": "Com",
    "1149": "being ",
    "1150": "team ",
    "1151": "consider",
    "1152": "anim",
    "1153": "echn",
    "1154": "7 ",
    "1155": "e\n",
    "1156": "sa",
    "1157": "ether ",
    "1158": "Pl",
    "1159": "ste",
    "1160": "eff",
    "1161": ", M",
    "1162": "char",
    "1163": "tract ",
    "1164": "ving ",
    "1165": "entify ",
    "1166": "ement ",
    "1167": "number ",
    "1168": "cus",
    "1169": "often ",
    "1170": "ant to ",
    "1171": "mul",
    "1172": "go ",
    "1173": "thing ",
    "1174": "ink ",
    "1175": "por",
    "1176": "Ph",
    "1177": "ici",
    "1178": "pur",
    "1179": "ll ",
    "1180": "lim",
    "1181": "appl",
    "1182": "re ",
    "1183": "befor",
    "1184": "is str",
    "1185": "Engl",
    "1186": "198",
    "1187": "under",
    "1188": "ver ",
    "1189": "sig",
    "1190": "ough",
    "1191": "develop",
    "1192": "seas",
    "1193": "incre",
    "1194": "inn",
    "1195": "10",
    "1196": "one of the ",
    "1197": "time",
    "1198": "direc",
    "1199": "sion ",
    "1200": "made ",
    "1201": "ia",
    "1202": "Gre",
    "1203": "k, ",
    "1204": "activ",
    "1205": "main",
    "1206": "ei",
    "1207": "ation of ",
    "1208": "ing and ",
    "1209": "publ",
    "1210": "ince ",
    "1211": "exampl",
    "1212": "ris",
    "1213": "tem",
    "1214": "can",
    "1215": ".\n\nUser: I",
    "1216": "Tr",
    "1217": "electr",
    "1218": "ustr",
    "1219": "Bl",
    "1220": "ond ",
    "1221": "ement",
    "1222": "fil",
    "1223": "per ",
    "1224": "world ",
    "1225": ".\n\nUser: Who ",
    "1226": "techn",
    "1227": "outh ",
    "1228": "val",
    "1229": ".\n\nUser: What is ",
    "1230": "tain",
    "1231": "posi",
    "1232": "cor",
    "1233": "ity of ",
    "1234": "ed and ",
    "1235": "form ",
    "1236": "ers",
    "1237": "ies",
    "1238": "Pro",
    "1239": "heal",
    "1240": "ew",
    "1241": "stor",
    "1242": "\u00e2\u0080\u009d",
    "1243": ".\n\nUser: Which ",
    "1244": "spe",
    "1245": "s in the ",
    "1246": ". D",
    "1247": "es in ",
    "1248": "Joh",
    "1249": "depend",
    "1250": "year ",
    "1251": "\u00e2\u0080\u0093",
    "1252": "assify ",
    "1253": "This ",
    "1254": "No",
    "1255": "ture",
    "1256": "include ",
    "1257": "much ",
    "1258": "equ",
    "1259": "le, ",
    "1260": "y and ",
    "1261": "lin",
    "1262": "nat",
    "1263": "them",
    "1264": "C ",
    "1265": "adv",
    "1266": "dist",
    "1267": "Car",
    "1268": "al, ",
    "1269": "\u00e2\u0080\u009c",
    "1270": "don",
    "1271": "e: ",
    "1272": "war",
    "1273": "Br",
    "1274": "curr",
    "1275": "en, ",
    "1276": "high ",
    "1277": "aus",
    "1278": "less ",
    "1279": "just ",
    "1280": "ivers",
    "1281": "contr",
    "1282": "even ",
    "1283": "If ",
    "1284": "tern",
    "1285": "Eu",
    "1286": "tra",
    "1287": "Bas",
    "1288": "onom",
    "1289": "fiel",
    "1290": "ship ",
    "1291": "ation, ",
    "1292": "There are ",
    "1293": "strum",
    "1294": "the s",
    "1295": "illi",
    "1296": "ted ",
    "1297": "tak",
    "1298": "play ",
    "1299": "ey",
    "1300": "game ",
    "1301": "bus",
    "1302": "any",
    "1303": "charac",
    "1304": "stand",
    "1305": "back ",
    "1306": "ligh",
    "1307": "ate",
    "1308": "World ",
    "1309": "Ac",
    "1310": "dentify ",
    "1311": "main ",
    "1312": "prof",
    "1313": "top ",
    "1314": "light ",
    "1315": "grap",
    "1316": "az",
    "1317": "* ",
    "1318": "Har",
    "1319": "grou",
    "1320": "orig",
    "1321": "instrum",
    "1322": "reas",
    "1323": "ut ",
    "1324": "list",
    "1325": "det",
    "1326": "sal",
    "1327": "es that ",
    "1328": "ers, ",
    "1329": "called ",
    "1330": "hy",
    "1331": "ign",
    "1332": "down ",
    "1333": "resul",
    "1334": "owever",
    "1335": "Classify ",
    "1336": "a and ",
    "1337": "ie ",
    "1338": "experi",
    "1339": "tical ",
    "1340": "read",
    "1341": "she ",
    "1342": "er and ",
    "1343": "percus",
    "1344": "fac",
    "1345": "ost",
    "1346": "rid",
    "1347": ". T",
    "1348": "need to ",
    "1349": "using ",
    "1350": "tion of ",
    "1351": "man ",
    "1352": "countri",
    "1353": "met",
    "1354": "Ger",
    "1355": "place ",
    "1356": "start",
    "1357": "divid",
    "1358": "organ",
    "1359": "\n ",
    "1360": "ight",
    "1361": "ick ",
    "1362": "ship",
    "1363": "ich",
    "1364": "amm",
    "1365": "ax",
    "1366": "writ",
    "1367": "beg",
    "1368": "ie",
    "1369": "ouse ",
    "1370": "trav",
    "1371": "find ",
    "1372": "sign",
    "1373": "hi",
    "1374": "Euro",
    "1375": "foot",
    "1376": "few ",
    "1377": "atic",
    "1378": "es the ",
    "1379": "common ",
    "1380": "Col",
    "1381": "ett",
    "1382": "of the following ",
    "1383": "text ",
    "1384": "ide",
    "1385": "percussion",
    "1386": "Se",
    "1387": "It",
    "1388": "poin",
    "1389": ". P",
    "1390": "United Stat",
    "1391": "tis",
    "1392": "e-",
    "1393": "im ",
    "1394": "person",
    "1395": "you are ",
    "1396": "number of ",
    "1397": "are some ",
    "1398": "itt",
    "1399": "' ",
    "1400": ".\n\nUser: Why ",
    "1401": "hand",
    "1402": "ampion",
    "1403": "able to ",
    "1404": "system",
    "1405": "dentify which ",
    "1406": ". Wh",
    "1407": "\u00c2\u00a0",
    "1408": "From ",
    "1409": "side ",
    "1410": "lead",
    "1411": "add",
    "1412": "trans",
    "1413": "ucc",
    "1414": "on a ",
    "1415": "before ",
    "1416": "s or ",
    "1417": "ed in the ",
    "1418": "state ",
    "1419": ". \n\n",
    "1420": "s. The ",
    "1421": "les ",
    "1422": "long",
    "1423": "rele",
    "1424": "bur",
    "1425": "origin",
    "1426": "9 ",
    "1427": "sist",
    "1428": "found",
    "1429": "sci",
    "1430": "ower",
    "1431": "maj",
    "1432": "need",
    "1433": "196",
    "1434": "appro",
    "1435": "ind ",
    "1436": "friend",
    "1437": "resp",
    "1438": ". If ",
    "1439": "contin",
    "1440": "medi",
    "1441": "wal",
    "1442": "ture ",
    "1443": "men",
    "1444": "they are ",
    "1445": "dom",
    "1446": "    ",
    "1447": "either ",
    "1448": "Franc",
    "1449": "ity, ",
    "1450": "of a ",
    "1451": "fic",
    "1452": "food ",
    "1453": ". L",
    "1454": "commun",
    "1455": "name ",
    "1456": "ern ",
    "1457": "lat",
    "1458": "ire ",
    "1459": "ently ",
    "1460": "197",
    "1461": "pi",
    "1462": ", which ",
    "1463": "train",
    "1464": ")\n",
    "1465": "enn",
    "1466": "vir",
    "1467": "ways ",
    "1468": "la",
    "1469": "but",
    "1470": ".\n\nUser: Given ",
    "1471": "hol",
    "1472": "ven",
    "1473": "typically ",
    "1474": "Tell me ",
    "1475": "rang",
    "1476": "ed with ",
    "1477": "her",
    "1478": "sever",
    "1479": "cas",
    "1480": "right ",
    "1481": "home ",
    "1482": "sn",
    "1483": "er of ",
    "1484": "d, ",
    "1485": "17",
    "1486": "there are ",
    "1487": "owever, ",
    "1488": "\n\nUser: G",
    "1489": "happ",
    "1490": "ital ",
    "1491": "roc",
    "1492": "mp",
    "1493": "inform",
    "1494": "mor",
    "1495": "Can",
    "1496": "scho",
    "1497": "Ad",
    "1498": "sti",
    "1499": "multi",
    "1500": "those ",
    "1501": "ential ",
    "1502": "famous ",
    "1503": "til ",
    "1504": "ak ",
    "1505": "t of the ",
    "1506": "want to ",
    "1507": "bod",
    "1508": "nor",
    "1509": "ession",
    "1510": "pot",
    "1511": "ever ",
    "1512": "that the ",
    "1513": "ord ",
    "1514": "ing or ",
    "1515": "eo",
    "1516": "sun",
    "1517": "last ",
    "1518": "cour",
    "1519": "ects ",
    "1520": "rite ",
    "1521": "paragraph ",
    "1522": "was a ",
    "1523": "country ",
    "1524": "oper",
    "1525": "not",
    "1526": "have a ",
    "1527": "\nAlmond: The ",
    "1528": "stat",
    "1529": "five ",
    "1530": "sport",
    "1531": "progr",
    "1532": "important ",
    "1533": "aur",
    "1534": "land ",
    "1535": "descri",
    "1536": "ally, ",
    "1537": "see ",
    "1538": "ank ",
    "1539": "econom",
    "1540": "che",
    "1541": "come ",
    "1542": "it's ",
    "1543": "flu",
    "1544": "stud",
    "1545": "including ",
    "1546": "largest ",
    "1547": ". W",
    "1548": "histor",
    "1549": "until ",
    "1550": "erc",
    "1551": "ed by the ",
    "1552": ".  The ",
    "1553": "ok",
    "1554": "acros",
    "1555": "ffe",
    "1556": "require",
    "1557": "whether ",
    "1558": ", but ",
    "1559": "s.\n\nUser: ",
    "1560": ". R",
    "1561": "ask",
    "1562": "expl",
    "1563": "about the ",
    "1564": "that is ",
    "1565": "ian ",
    "1566": "book",
    "1567": "ular ",
    "1568": "milli",
    "1569": "might ",
    "1570": "enef",
    "1571": "ed on the ",
    "1572": "ed as ",
    "1573": "air ",
    "1574": "presid",
    "1575": "person ",
    "1576": "ature",
    "1577": "better ",
    "1578": "gover",
    "1579": "\nS",
    "1580": "?\nAlmond: S",
    "1581": "i, ",
    "1582": "ific",
    "1583": "character",
    "1584": "years ",
    "1585": "Chin",
    "1586": "without ",
    "1587": "help",
    "1588": "though ",
    "1589": "cle",
    "1590": "car ",
    "1591": "used to ",
    "1592": "ass ",
    "1593": "ue",
    "1594": "keep ",
    "1595": "mark",
    "1596": "Jap",
    "1597": "fish",
    "1598": "long ",
    "1599": "energ",
    "1600": "son ",
    "1601": "into the ",
    "1602": "of these ",
    "1603": "a list ",
    "1604": "by the ",
    "1605": "family ",
    "1606": "to a ",
    "1607": "ia, ",
    "1608": "es, and ",
    "1609": "every ",
    "1610": "Ge",
    "1611": "sure ",
    "1612": ". It is ",
    "1613": "exc",
    "1614": "has been ",
    "1615": "life ",
    "1616": "ows ",
    "1617": "stit",
    "1618": "iet",
    "1619": "% ",
    "1620": "National ",
    "1621": "orts ",
    "1622": "again",
    "1623": "sim",
    "1624": "ek",
    "1625": "oth",
    "1626": "way to ",
    "1627": "sive ",
    "1628": "port ",
    "1629": "iqu",
    "1630": ":\n",
    "1631": "mis",
    "1632": "Be",
    "1633": "succ",
    "1634": ".\n\nUser: Give me ",
    "1635": "lik",
    "1636": "u ",
    "1637": "stre",
    "1638": "appe",
    "1639": "city ",
    "1640": "human ",
    "1641": "four ",
    "1642": "compan",
    "1643": "partic",
    "1644": "arch",
    "1645": "rac",
    "1646": "Univers",
    "1647": "due ",
    "1648": ". I ",
    "1649": ",No",
    "1650": "back",
    "1651": "Cali",
    "1652": "aliz",
    "1653": "during ",
    "1654": "15",
    "1655": "net",
    "1656": "t and ",
    "1657": "forn",
    "1658": "cal",
    "1659": "usually ",
    "1660": ",No\n ",
    "1661": "s (",
    "1662": ". O",
    "1663": ". They ",
    "1664": "live ",
    "1665": "players ",
    "1666": "impro",
    "1667": "\n2",
    "1668": "Californ",
    "1669": "individ",
    "1670": ". A ",
    "1671": "ext",
    "1672": "try",
    "1673": "del",
    "1674": "ague ",
    "1675": "reference ",
    "1676": "United States ",
    "1677": "several ",
    "1678": "become ",
    "1679": "childr",
    "1680": "get",
    "1681": "t to ",
    "1682": "mean",
    "1683": "off ",
    "1684": "well",
    "1685": "De",
    "1686": "health",
    "1687": ", a ",
    "1688": "ural ",
    "1689": "national ",
    "1690": "ail ",
    "1691": "Fin",
    "1692": "\n3",
    "1693": "For ",
    "1694": "busin",
    "1695": "es: ",
    "1696": "part",
    "1697": "Yor",
    "1698": "languag",
    "1699": "ific ",
    "1700": "care",
    "1701": "s a ",
    "1702": "ed a ",
    "1703": "Re",
    "1704": "ave ",
    "1705": "ton ",
    "1706": "phys",
    "1707": "so",
    "1708": "times ",
    "1709": "Gen",
    "1710": "yst",
    "1711": "Bri",
    "1712": "prac",
    "1713": "as well ",
    "1714": "found ",
    "1715": "rol",
    "1716": "You can ",
    "1717": "ik",
    "1718": "govern",
    "1719": "One ",
    "1720": "would be ",
    "1721": "given ",
    "1722": "series ",
    "1723": "top",
    "1724": "aut",
    "1725": "ed for ",
    "1726": "US",
    "1727": "sible ",
    "1728": "still ",
    "1729": "War",
    "1730": "tract the ",
    "1731": "der",
    "1732": "reduc",
    "1733": ".\nAlmond: The ",
    "1734": "ward",
    "1735": "coffe",
    "1736": "Di",
    "1737": "rest",
    "1738": "tor",
    "1739": "primar",
    "1740": "Fl",
    "1741": "ge ",
    "1742": "since ",
    "1743": "key ",
    "1744": "servic",
    "1745": "on-",
    "1746": "know ",
    "1747": "system ",
    "1748": "during the ",
    "1749": "no",
    "1750": "amoun",
    "1751": "ock ",
    "1752": "South ",
    "1753": ".\n\nThe ",
    "1754": "imp",
    "1755": "manag",
    "1756": "power ",
    "1757": "veg",
    "1758": "minut",
    "1759": "os ",
    "1760": "present",
    "1761": "based on ",
    "1762": "ig ",
    "1763": "bir",
    "1764": "a is ",
    "1765": "lig",
    "1766": "Pre",
    "1767": "Ear",
    "1768": "b ",
    "1769": "great",
    "1770": ",00",
    "1771": "ying ",
    "1772": "Mic",
    "1773": "instrument ",
    "1774": "another ",
    "1775": "He ",
    "1776": "line ",
    "1777": "profession",
    "1778": "turn",
    "1779": "fru",
    "1780": "San ",
    "1781": "bers ",
    "1782": "ourc",
    "1783": "self ",
    "1784": "became ",
    "1785": "ci",
    "1786": "complet",
    "1787": "ants ",
    "1788": "qual",
    "1789": "defin",
    "1790": "Cr",
    "1791": "\n\nUser: What is the ",
    "1792": "the best ",
    "1793": "er is ",
    "1794": "set ",
    "1795": "ather ",
    "1796": "centur",
    "1797": "types of ",
    "1798": "vol",
    "1799": "New Yor",
    "1800": "10 ",
    "1801": "Austr",
    "1802": "born ",
    "1803": "El",
    "1804": "s of the ",
    "1805": "benef",
    "1806": "ric",
    "1807": "won ",
    "1808": "will be ",
    "1809": "anch",
    "1810": "thing",
    "1811": "ability ",
    "1812": "other",
    "1813": "ink",
    "1814": "ed to the ",
    "1815": "20 ",
    "1816": "releas",
    "1817": "water",
    "1818": "sug",
    "1819": "music ",
    "1820": "siz",
    "1821": "passage ",
    "1822": "food",
    "1823": "func",
    "1824": "Australi",
    "1825": "same ",
    "1826": "tion, ",
    "1827": "From the ",
    "1828": "Gu",
    "1829": "sing",
    "1830": "?\nAlmond: A ",
    "1831": "fast",
    "1832": "major ",
    "1833": "point",
    "1834": "use",
    "1835": "graph",
    "1836": "ques",
    "1837": "build",
    "1838": "Georg",
    "1839": "y to ",
    "1840": "ere",
    "1841": "ott",
    "1842": "ref",
    "1843": "over the ",
    "1844": "rece",
    "1845": "species ",
    "1846": "term ",
    "1847": "30",
    "1848": "\n\nUser: Who ",
    "1849": "North ",
    "1850": "tour",
    "1851": "under ",
    "1852": "separ",
    "1853": "why ",
    "1854": " (",
    "1855": "process",
    "1856": "one",
    "1857": "arm",
    "1858": "son",
    "1859": "ought ",
    "1860": "company ",
    "1861": "every",
    "1862": ".\n\nUser: Identify which ",
    "1863": "obj",
    "1864": "now ",
    "1865": " is ",
    "1866": "Mon",
    "1867": "sequ",
    "1868": "nec",
    "1869": ", T",
    "1870": "prot",
    "1871": "ebr",
    "1872": "public ",
    "1873": "type of ",
    "1874": "They ",
    "1875": "John ",
    "1876": ") and ",
    "1877": "ves ",
    "1878": "caus",
    "1879": "visit ",
    "1880": "sit",
    "1881": "word",
    "1882": "ately ",
    "1883": "\n\nUser: How ",
    "1884": "difference ",
    "1885": "dro",
    "1886": "foc",
    "1887": "must ",
    "1888": "Co",
    "1889": ", or ",
    "1890": "tran",
    "1891": "rul",
    "1892": "known as ",
    "1893": "peopl",
    "1894": "ale ",
    "1895": "med",
    "1896": "technolog",
    "1897": "itch",
    "1898": ", and the ",
    "1899": "against ",
    "1900": "esp",
    "1901": "ot of ",
    "1902": "is not ",
    "1903": "level",
    "1904": "arti",
    "1905": "avail",
    "1906": "social ",
    "1907": "s on ",
    "1908": "e, the ",
    "1909": "put ",
    "1910": ".\n\nUser: What are the ",
    "1911": "Pr",
    "1912": "fre",
    "1913": "organiz",
    "1914": "V ",
    "1915": "emp",
    "1916": "ly, ",
    "1917": "cle ",
    "1918": "large ",
    "1919": "have been ",
    "1920": "def",
    "1921": "les",
    "1922": "all the ",
    "1923": "hour",
    "1924": "peti",
    "1925": "ism",
    "1926": "ft ",
    "1927": "amon",
    "1928": "sport ",
    "1929": ", R",
    "1930": "view",
    "1931": "aj",
    "1932": "item",
    "1933": "has a ",
    "1934": "16",
    "1935": "short ",
    "1936": "bro",
    "1937": "language ",
    "1938": "hear",
    "1939": "second ",
    "1940": "ven ",
    "1941": "located ",
    "1942": "ext ",
    "1943": "wood",
    "1944": "ing of ",
    "1945": "follow",
    "1946": "you'",
    "1947": "is to ",
    "1948": "ce",
    "1949": "compu",
    "1950": "coll",
    "1951": "ustom",
    "1952": "pain",
    "1953": "od ",
    "1954": "Europe",
    "1955": "early ",
    "1956": "195",
    "1957": "provide ",
    "1958": "too ",
    "1959": "exerc",
    "1960": "rot",
    "1961": "poli",
    "1962": "light",
    "1963": "cel",
    "1964": "reason",
    "1965": "L ",
    "1966": "fric",
    "1967": "n't ",
    "1968": "saf",
    "1969": "moun",
    "1970": "this paragraph ",
    "1971": "tell me ",
    "1972": "ullet",
    "1973": "think ",
    "1974": ".\n\nUser: Classify ",
    "1975": "tot",
    "1976": "1, ",
    "1977": "event",
    "1978": "ai",
    "1979": "Ap",
    "1980": "run ",
    "1981": "football ",
    "1982": "ution",
    "1983": "uck",
    "1984": "let ",
    "1985": "vic",
    "1986": "ow, ",
    "1987": "atter",
    "1988": "US ",
    "1989": "ooking ",
    "1990": "sof",
    "1991": "ign ",
    "1992": "udi",
    "1993": ":\n\n",
    "1994": "ath ",
    "1995": "if you ",
    "1996": "start ",
    "1997": ".S",
    "1998": "financ",
    "1999": "gol",
    "2000": "down",
    "2001": "sty",
    "2002": "hal",
    "2003": "design",
    "2004": "adi",
    "2005": "instrument is str",
    "2006": "instrument is string or ",
    "2007": "class",
    "2008": "ore",
    "2009": "ffic",
    "2010": "clos",
    "2011": "in, ",
    "2012": "meth",
    "2013": "es in the ",
    "2014": "12",
    "2015": "& ",
    "2016": "a\n",
    "2017": "head",
    "2018": "ron",
    "2019": "comb",
    "2020": "bar",
    "2021": "! ",
    "2022": "a p",
    "2023": "increas",
    "2024": "empl",
    "2025": "season",
    "2026": "is, ",
    "2027": "ge",
    "2028": "joy ",
    "2029": "Bo",
    "2030": "When ",
    "2031": "tish ",
    "2032": "iev",
    "2033": "aff",
    "2034": "mag",
    "2035": "ditional ",
    "2036": "always ",
    "2037": "tog",
    "2038": "prom",
    "2039": "invest",
    "2040": "ton",
    "2041": "\n\nUser: What is ",
    "2042": "anal",
    "2043": "Sw",
    "2044": "Ste",
    "2045": "Bar",
    "2046": "board",
    "2047": ". C",
    "2048": "eral ",
    "2049": "aver",
    "2050": "issu",
    "2051": "\n\nUser: I",
    "2052": "famil",
    "2053": "ori",
    "2054": "cover",
    "2055": "s.\n\n",
    "2056": "ward ",
    "2057": "vel ",
    "2058": "\n\nUser: Which ",
    "2059": "Afric",
    "2060": "sle",
    "2061": "at, ",
    "2062": "look ",
    "2063": "cy",
    "2064": "Per",
    "2065": ". Al",
    "2066": "multiple ",
    "2067": "thern ",
    "2068": "avor",
    "2069": "money ",
    "2070": "don't ",
    "2071": "es of the ",
    "2072": "ation and ",
    "2073": "Write ",
    "2074": ". For ",
    "2075": "ember ",
    "2076": "e in ",
    "2077": "or, ",
    "2078": "things ",
    "2079": "is also ",
    "2080": "meas",
    "2081": "sports ",
    "2082": "s with ",
    "2083": "able",
    "2084": "ective ",
    "2085": "auth",
    "2086": "create ",
    "2087": "making ",
    "2088": "ble",
    "2089": "consum",
    "2090": "each of the following ",
    "2091": "ek ",
    "2092": "current ",
    "2093": "ester",
    "2094": "consist",
    "2095": "wind",
    "2096": "show ",
    "2097": "fur",
    "2098": "\u00e2\u0080\u009d ",
    "2099": "alb",
    "2100": "kid",
    "2101": "fter ",
    "2102": "U.S",
    "2103": "tel",
    "2104": "probl",
    "2105": "th, ",
    "2106": "temper",
    "2107": "mer ",
    "2108": "ex ",
    "2109": "charg",
    "2110": "won the ",
    "2111": "ision ",
    "2112": "created ",
    "2113": "move ",
    "2114": "Jam",
    "2115": "ubl",
    "2116": "e.  ",
    "2117": "professional ",
    "2118": "\u00e2\u0080\u0099t ",
    "2119": "y?\nAlmond: ",
    "2120": "Indian ",
    "2121": "tor ",
    "2122": "Japan",
    "2123": "ide ",
    "2124": "month",
    "2125": "He",
    "2126": "tod",
    "2127": "champion",
    "2128": "information ",
    "2129": "hic",
    "2130": "English ",
    "2131": "board ",
    "2132": "club",
    "2133": "ird ",
    "2134": "considered ",
    "2135": "small ",
    "2136": "more than ",
    "2137": "es for ",
    "2138": "educ",
    "2139": "reference text ",
    "2140": "atic ",
    "2141": "respon",
    "2142": ".\n2",
    "2143": "ers and ",
    "2144": "Coun",
    "2145": "various ",
    "2146": "answ",
    "2147": "turn ",
    "2148": "action ",
    "2149": "example, ",
    "2150": "ench ",
    "2151": "ouse",
    "2152": "ts and ",
    "2153": "body ",
    "2154": "Name ",
    "2155": "area ",
    "2156": "Pri",
    "2157": "et, ",
    "2158": "action",
    "2159": "invol",
    "2160": "million ",
    "2161": "ways to ",
    "2162": "err",
    "2163": "field ",
    "2164": ". G",
    "2165": "opp",
    "2166": "shar",
    "2167": "ump",
    "2168": "\u00e2\u0080\u0093 ",
    "2169": "record",
    "2170": "idd",
    "2171": "arly ",
    "2172": "season ",
    "2173": "s from ",
    "2174": "experienc",
    "2175": "house ",
    "2176": "tom",
    "2177": "custom",
    "2178": "D ",
    "2179": "generally ",
    "2180": "which is ",
    "2181": "aul",
    "2182": "prote",
    "2183": "\", ",
    "2184": "basket",
    "2185": "\n4",
    "2186": "rain",
    "2187": "\u00c3\u00a9",
    "2188": "at a ",
    "2189": "life",
    "2190": "feel ",
    "2191": "y, and ",
    "2192": "common",
    "2193": "group",
    "2194": "sou",
    "2195": "For",
    "2196": "ern",
    "2197": "ated",
    "2198": "likely ",
    "2199": ". E",
    "2200": "ban",
    "2201": "travel ",
    "2202": "e\nAlmond: ",
    "2203": ",000 ",
    "2204": "bab",
    "2205": "a list of ",
    "2206": "term",
    "2207": "ox",
    "2208": "lead ",
    "2209": "es a ",
    "2210": "Some ",
    "2211": "Dr",
    "2212": "oriz",
    "2213": "enjoy ",
    "2214": "ush",
    "2215": ".\n3",
    "2216": "ativ",
    "2217": "And ",
    "2218": "ove ",
    "2219": "194",
    "2220": "auti",
    "2221": "a few ",
    "2222": "consider ",
    "2223": "non-",
    "2224": "signific",
    "2225": "should be ",
    "2226": "Cent",
    "2227": "as well as ",
    "2228": "veget",
    "2229": "chec",
    "2230": "read ",
    "2231": "Mo",
    "2232": "ature ",
    "2233": ")\n- ",
    "2234": "ing in ",
    "2235": "member ",
    "2236": "New York ",
    "2237": "difference between ",
    "2238": "him ",
    "2239": "50",
    "2240": "applic",
    "2241": "love ",
    "2242": "\nB",
    "2243": "simil",
    "2244": "quar",
    "2245": "manu",
    "2246": "age, ",
    "2247": "local ",
    "2248": "etc",
    "2249": "nes",
    "2250": "shap",
    "2251": "open ",
    "2252": "arch ",
    "2253": "har",
    "2254": "liv",
    "2255": "ially ",
    "2256": "Ser",
    "2257": "book ",
    "2258": "door ",
    "2259": "clim",
    "2260": "guit",
    "2261": "ittle ",
    "2262": "ez",
    "2263": "viron",
    "2264": "s\nAlmond: ",
    "2265": "wid",
    "2266": "week",
    "2267": "British ",
    "2268": "model",
    "2269": "specific ",
    "2270": "degre",
    "2271": "NB",
    "2272": "oci",
    "2273": "ency ",
    "2274": "give ",
    "2275": "learn ",
    "2276": "competi",
    "2277": "ral ",
    "2278": "group ",
    "2279": "law",
    "2280": "sw",
    "2281": "base",
    "2282": "experience ",
    "2283": "vot",
    "2284": "history ",
    "2285": "cu",
    "2286": "e.",
    "2287": "vehic",
    "2288": "a lot of ",
    "2289": "King",
    "2290": "list of ",
    "2291": "set",
    "2292": "e is ",
    "2293": "market",
    "2294": "ner",
    "2295": "the following ",
    "2296": "capital ",
    "2297": "countries ",
    "2298": "build ",
    "2299": "ired ",
    "2300": "personal ",
    "2301": "percussion: ",
    "2302": ", D",
    "2303": "it was ",
    "2304": "you have ",
    "2305": "open",
    "2306": "ieve ",
    "2307": "Canad",
    "2308": "Ang",
    "2309": "sen",
    "2310": "y\n",
    "2311": "?\nAlmond: A",
    "2312": "grow",
    "2313": "least ",
    "2314": "piec",
    "2315": "influ",
    "2316": "self",
    "2317": "instrument is string or percussion: ",
    "2318": "lease ",
    "2319": "stric",
    "2320": "attle ",
    "2321": "sch",
    "2322": "due to ",
    "2323": "mach",
    "2324": "accoun",
    "2325": "2, ",
    "2326": "someone ",
    "2327": "modern ",
    "2328": "he was ",
    "2329": "alleng",
    "2330": "tal",
    "2331": "To ",
    "2332": "\n\nUser: Given ",
    "2333": "do not ",
    "2334": "List ",
    "2335": "ateg",
    "2336": "ies, ",
    "2337": "dest",
    "2338": "or a ",
    "2339": "s, the ",
    "2340": "ource ",
    "2341": "While ",
    "2342": "feel",
    "2343": "Qu",
    "2344": "raz",
    "2345": "Fir",
    "2346": "?\nAlmond: M",
    "2347": "is string, ",
    "2348": "dog ",
    "2349": "interest",
    "2350": "mater",
    "2351": "Is",
    "2352": "you will ",
    "2353": "player ",
    "2354": ".\n\nUser: Tell me ",
    "2355": "tional ",
    "2356": "\n\nUser: Why ",
    "2357": "paragraph",
    "2358": "ax ",
    "2359": "part of the ",
    "2360": "At",
    "2361": "egg",
    "2362": ".\n\nUser: What are ",
    "2363": "environ",
    "2364": "League ",
    "2365": "righ",
    "2366": "Rep",
    "2367": "In the ",
    "2368": "cep",
    "2369": "power",
    "2370": "appear",
    "2371": "small",
    "2372": "engine",
    "2373": "Francis",
    "2374": "school",
    "2375": "scor",
    "2376": "cir",
    "2377": "a good ",
    "2378": "tu",
    "2379": "along ",
    "2380": "next ",
    "2381": "away ",
    "2382": "Wash",
    "2383": "th centur",
    "2384": "ected ",
    "2385": "never ",
    "2386": "through",
    "2387": "ib",
    "2388": "ren",
    "2389": "real",
    "2390": "ator",
    "2391": "in the world",
    "2392": ". There are ",
    "2393": "manufact",
    "2394": "exic",
    "2395": "ger",
    "2396": ".\n\nUser: What are some ",
    "2397": "ism ",
    "2398": "underst",
    "2399": "lov",
    "2400": "spr",
    "2401": "youn",
    "2402": "skill",
    "2403": "dem",
    "2404": "us, ",
    "2405": "increase ",
    "2406": "variet",
    "2407": "makes ",
    "2408": "pan",
    "2409": "Cor",
    "2410": "hard ",
    "2411": "natural ",
    "2412": "receiv",
    "2413": "associ",
    "2414": "ending ",
    "2415": "deter",
    "2416": "establ",
    "2417": "\n* ",
    "2418": "rop",
    "2419": "at's ",
    "2420": "something ",
    "2421": "30 ",
    "2422": "izz",
    "2423": "s like ",
    "2424": "primary ",
    "2425": "success",
    "2426": "may be ",
    "2427": "as, ",
    "2428": "14",
    "2429": "search ",
    "2430": "Or",
    "2431": "employ",
    "2432": "visit",
    "2433": "ney ",
    "2434": "Asi",
    "2435": "3, ",
    "2436": "es?\nAlmond: ",
    "2437": "a\nAlmond: ",
    "2438": "These ",
    "2439": "wom",
    "2440": "physical ",
    "2441": "animal ",
    "2442": "color",
    "2443": "to re",
    "2444": "energy ",
    "2445": "Moun",
    "2446": "working ",
    "2447": "low ",
    "2448": "ary",
    "2449": "Ro",
    "2450": "xim",
    "2451": "Dis",
    "2452": "eat ",
    "2453": "hom",
    "2454": "forman",
    "2455": "As",
    "2456": "Washing",
    "2457": "art ",
    "2458": ".\n\nUser: What is a ",
    "2459": "commonly ",
    "2460": "1.",
    "2461": "une ",
    "2462": "tware ",
    "2463": "th and ",
    "2464": "exist",
    "2465": "weight ",
    "2466": "hold",
    "2467": "remain",
    "2468": "es (",
    "2469": "the most ",
    "2470": "market ",
    "2471": "recomm",
    "2472": "communic",
    "2473": "War ",
    "2474": "forc",
    "2475": "word ",
    "2476": "companies ",
    "2477": "beauti",
    "2478": "face ",
    "2479": "key",
    "2480": "around the ",
    "2481": "do you ",
    "2482": "agu",
    "2483": "German",
    "2484": "Apr",
    "2485": "challeng",
    "2486": "combin",
    "2487": "change ",
    "2488": "business ",
    "2489": "job",
    "2490": "ers to ",
    "2491": "amount of ",
    "2492": "audi",
    "2493": "vac",
    "2494": "total ",
    "2495": "offic",
    "2496": "plat",
    "2497": "full ",
    "2498": ". You ",
    "2499": "allow",
    "2500": "Rom",
    "2501": "ith ",
    "2502": "ent, ",
    "2503": "children ",
    "2504": "among ",
    "2505": "Del",
    "2506": "part of ",
    "2507": "Pot",
    "2508": "condition",
    "2509": "electric ",
    "2510": "a: ",
    "2511": "Char",
    "2512": "some of the ",
    "2513": "fficul",
    "2514": "rist",
    "2515": "Gam",
    "2516": "living ",
    "2517": "ty",
    "2518": "ar, ",
    "2519": "ulleted ",
    "2520": "Tim",
    "2521": "known for ",
    "2522": "Wal",
    "2523": ".\n- ",
    "2524": "z ",
    "2525": "icy",
    "2526": ". N",
    "2527": "categ",
    "2528": "round",
    "2529": "age",
    "2530": "owl",
    "2531": "Mc",
    "2532": ". Some ",
    "2533": "hor",
    "2534": "does not ",
    "2535": "played ",
    "2536": "financial ",
    "2537": "iter",
    "2538": "anti",
    "2539": "feature",
    "2540": "Harry ",
    "2541": "\n5",
    "2542": "room",
    "2543": "support ",
    "2544": "er than ",
    "2545": "option",
    "2546": "a f",
    "2547": "ather",
    "2548": "difficul",
    "2549": "valu",
    "2550": "From the passage ",
    "2551": "running ",
    "2552": "out the ",
    "2553": "movies ",
    "2554": "story ",
    "2555": "ato",
    "2556": "conn",
    "2557": "level ",
    "2558": "tice ",
    "2559": ". These ",
    "2560": "stic",
    "2561": "II",
    "2562": "co ",
    "2563": ", L",
    "2564": "enough ",
    "2565": "ode ",
    "2566": "parti",
    "2567": "through the ",
    "2568": "Sing",
    "2569": "head ",
    "2570": "ensive ",
    "2571": ".\n\nUser: Ex",
    "2572": "es.  ",
    "2573": "Dec",
    "2574": "proj",
    "2575": "I'",
    "2576": "Cap",
    "2577": "asp",
    "2578": "cook",
    "2579": "field",
    "2580": "uring ",
    "2581": "a's ",
    "2582": "ental ",
    "2583": "coffee ",
    "2584": "vers",
    "2585": "ial",
    "2586": "hon",
    "2587": "s.\nAlmond: ",
    "2588": "ew ",
    "2589": "tenn",
    "2590": "table ",
    "2591": "un ",
    "2592": "performan",
    "2593": "fully ",
    "2594": "led",
    "2595": "hard",
    "2596": "inst",
    "2597": "John",
    "2598": "animal",
    "2599": "ine, ",
    "2600": "crick",
    "2601": "ere is ",
    "2602": "direct",
    "2603": ", P",
    "2604": "swi",
    "2605": "T ",
    "2606": "the first ",
    "2607": "er in ",
    "2608": "how to ",
    "2609": "San Francis",
    "2610": "break",
    "2611": "mm",
    "2612": ":\n- ",
    "2613": "ution ",
    "2614": ". However, ",
    "2615": "ogn",
    "2616": "enj",
    "2617": "Nov",
    "2618": "s.\n",
    "2619": "Champion",
    "2620": "O ",
    "2621": "citi",
    "2622": "government ",
    "2623": "pris",
    "2624": "gest ",
    "2625": "Willi",
    "2626": "rat",
    "2627": "tow",
    "2628": "red",
    "2629": "Rus",
    "2630": "age of ",
    "2631": "Gold",
    "2632": "inste",
    "2633": "Lond",
    "2634": "ply ",
    "2635": "ski",
    "2636": "Li",
    "2637": "allow ",
    "2638": "fut",
    "2639": "card",
    "2640": "contain",
    "2641": "24",
    "2642": "individual ",
    "2643": "written ",
    "2644": "park",
    "2645": "know",
    "2646": "e. The ",
    "2647": "possible ",
    "2648": "school ",
    "2649": "a (",
    "2650": "heav",
    "2651": "doc",
    "2652": "bit",
    "2653": "film",
    "2654": "t the ",
    "2655": "Please ",
    "2656": "ins",
    "2657": "out of ",
    "2658": "green ",
    "2659": ". \n",
    "2660": "your",
    "2661": "Play",
    "2662": "purch",
    "2663": "pay",
    "2664": "TV ",
    "2665": "ectiv",
    "2666": "a sm",
    "2667": "Angel",
    "2668": "Rob",
    "2669": "establish",
    "2670": "travel",
    "2671": "space ",
    "2672": "Her",
    "2673": "a?\nAlmond: ",
    "2674": "room ",
    "2675": "white ",
    "2676": "s have ",
    "2677": "proper",
    "2678": "Dav",
    "2679": "points ",
    "2680": "ter, ",
    "2681": "can also ",
    "2682": "yth",
    "2683": "Man",
    "2684": "icag",
    "2685": "ique ",
    "2686": "describ",
    "2687": "los",
    "2688": "advant",
    "2689": "redi",
    "2690": " - ",
    "2691": "Once ",
    "2692": "near ",
    "2693": "uary ",
    "2694": "process ",
    "2695": "black ",
    "2696": "movie ",
    "2697": "used in ",
    "2698": "giv",
    "2699": "add ",
    "2700": "regul",
    "2701": "iel",
    "2702": "tournam",
    "2703": "ap ",
    "2704": "dam",
    "2705": "cities ",
    "2706": "ress ",
    "2707": "ed to be ",
    "2708": "named ",
    "2709": "show",
    "2710": "active ",
    "2711": "continu",
    "2712": "\u00e2\u0080\u00a2",
    "2713": "Mexic",
    "2714": "programm",
    "2715": "35",
    "2716": "pric",
    "2717": "Ven",
    "2718": "Op",
    "2719": "playing ",
    "2720": "park ",
    "2721": "extinc",
    "2722": "ix",
    "2723": "hab",
    "2724": "similar ",
    "2725": "European ",
    "2726": "Chicag",
    "2727": "Jan",
    "2728": "represent",
    "2729": "Phil",
    "2730": "Res",
    "2731": "t in ",
    "2732": "It is ",
    "2733": "goal",
    "2734": "as either ",
    "2735": "\n\nUser: Give me ",
    "2736": "uel",
    "2737": "] ",
    "2738": "a reference text ",
    "2739": "autom",
    "2740": "o-",
    "2741": "compar",
    "2742": "On ",
    "2743": "left ",
    "2744": "variety of ",
    "2745": "eo ",
    "2746": "French ",
    "2747": "arge ",
    "2748": "hot ",
    "2749": "Mal",
    "2750": "ribu",
    "2751": "Tw",
    "2752": "stay ",
    "2753": "es. The ",
    "2754": "need ",
    "2755": "award",
    "2756": "estern ",
    "2757": "ing: ",
    "2758": "ity and ",
    "2759": "rate ",
    "2760": "hand ",
    "2761": "espec",
    "2762": "region",
    "2763": "country",
    "2764": "er of the ",
    "2765": "zon",
    "2766": "istr",
    "2767": "happen",
    "2768": "enter",
    "2769": "record ",
    "2770": "quick",
    "2771": "Foot",
    "2772": "especially ",
    "2773": "step",
    "2774": "lay",
    "2775": "Oc",
    "2776": "a L",
    "2777": "George ",
    "2778": "ute ",
    "2779": "bik",
    "2780": "ological ",
    "2781": "Sum",
    "2782": "house",
    "2783": "ole ",
    "2784": "perform",
    "2785": "learning ",
    "2786": ". She ",
    "2787": "human",
    "2788": "at least ",
    "2789": "grad",
    "2790": "hael ",
    "2791": "ed from ",
    "2792": "gi",
    "2793": "ger ",
    "2794": "e's ",
    "2795": "Am",
    "2796": "structure",
    "2797": "bank",
    "2798": "ing, and ",
    "2799": "once ",
    "2800": "chick",
    "2801": "improve ",
    "2802": "2019",
    "2803": "Wat",
    "2804": "Can ",
    "2805": "evol",
    "2806": "glob",
    "2807": "ision",
    "2808": "Presid",
    "2809": "time, ",
    "2810": "ed that ",
    "2811": "going ",
    "2812": "really ",
    "2813": "having ",
    "2814": ".\n\nUser: How many ",
    "2815": "intend",
    "2816": "based ",
    "2817": "looking ",
    "2818": "greatest ",
    "2819": "third ",
    "2820": "which are ",
    "2821": "ously ",
    "2822": "University of ",
    "2823": "ing your ",
    "2824": "ers. ",
    "2825": "uk",
    "2826": "squ",
    "2827": "view ",
    "2828": "Po",
    "2829": "weather ",
    "2830": "urr",
    "2831": "thre",
    "2832": "?\nAlmond: There are ",
    "2833": "available ",
    "2834": "eth",
    "2835": "to get ",
    "2836": "oid ",
    "2837": "learn",
    "2838": "bal",
    "2839": "Braz",
    "2840": ". When ",
    "2841": "control ",
    "2842": "computer ",
    "2843": "ground ",
    "2844": "eat",
    "2845": "| ",
    "2846": "held ",
    "2847": "phone ",
    "2848": "pat",
    "2849": "ay, ",
    "2850": "streng",
    "2851": "interest ",
    "2852": "most popular ",
    "2853": "film ",
    "2854": "ingredi",
    "2855": "Dat",
    "2856": "studi",
    "2857": "NBA ",
    "2858": "Aug",
    "2859": "dic",
    "2860": "arr",
    "2861": "political ",
    "2862": "to make ",
    "2863": "scienti",
    "2864": "not be ",
    "2865": "song",
    "2866": "wide ",
    "2867": "a M",
    "2868": "s were ",
    "2869": "in your ",
    "2870": "later ",
    "2871": "free ",
    "2872": "= ",
    "2873": "es or ",
    "2874": "between the ",
    "2875": "ize ",
    "2876": "user",
    "2877": "ic, ",
    "2878": "leav",
    "2879": "close ",
    "2880": "tou",
    "2881": "sell",
    "2882": "a, and ",
    "2883": "ym",
    "2884": "new",
    "2885": "plant",
    "2886": "prev",
    "2887": "P ",
    "2888": "dre",
    "2889": "cause ",
    "2890": "fron",
    "2891": "West ",
    "2892": "s is ",
    "2893": "hav",
    "2894": "April ",
    "2895": "practic",
    "2896": "ations, ",
    "2897": "iss",
    "2898": "text",
    "2899": "yn",
    "2900": "dig",
    "2901": ":\n1",
    "2902": "of all ",
    "2903": "CO",
    "2904": "exercis",
    "2905": "and a ",
    "2906": "ark ",
    "2907": "when the ",
    "2908": "ask ",
    "2909": "problem",
    "2910": "road ",
    "2911": "watch",
    "2912": "and, ",
    "2913": "We ",
    "2914": "5, ",
    "2915": "dition ",
    "2916": "Ed",
    "2917": "net ",
    "2918": "general ",
    "2919": "ould",
    "2920": "House ",
    "2921": "mix",
    "2922": "one, ",
    "2923": "es from ",
    "2924": "I can ",
    "2925": "en's ",
    "2926": "video ",
    "2927": "3-",
    "2928": "point ",
    "2929": "onic ",
    "2930": "ace",
    "2931": "Europ",
    "2932": "cost ",
    "2933": "We",
    "2934": "ing is ",
    "2935": "beautiful ",
    "2936": "industr",
    "2937": "wood ",
    "2938": "model ",
    "2939": "mental ",
    "2940": "impl",
    "2941": "one of ",
    "2942": "identi",
    "2943": "ts of ",
    "2944": "getting ",
    "2945": "stri",
    "2946": "higher ",
    "2947": "Jack",
    "2948": "Fam",
    "2949": "Bu",
    "2950": "order ",
    "2951": "Bost",
    "2952": "ull",
    "2953": "socc",
    "2954": "Don",
    "2955": "--",
    "2956": "oph",
    "2957": "goal ",
    "2958": "together ",
    "2959": "Tur",
    "2960": "members ",
    "2961": "civ",
    "2962": "favor",
    "2963": "s as ",
    "2964": "there is ",
    "2965": "it, ",
    "2966": "drive ",
    "2967": "ild",
    "2968": "B ",
    "2969": "aking ",
    "2970": "how many ",
    "2971": "er\n",
    "2972": "ate the ",
    "2973": "Dog",
    "2974": "tob",
    "2975": "was the first ",
    "2976": "mot",
    "2977": "12 ",
    "2978": "popular",
    "2979": "offer",
    "2980": "could be ",
    "2981": "say ",
    "2982": "regard",
    "2983": "up to ",
    "2984": "short",
    "2985": "ense ",
    "2986": "restaur",
    "2987": "\n\nUser: Classify ",
    "2988": "archit",
    "2989": "president ",
    "2990": "late ",
    "2991": "um, ",
    "2992": "ual",
    "2993": "reach",
    "2994": "enjoy",
    "2995": "intro",
    "2996": "193",
    "2997": "fast ",
    "2998": "\n\nUser: What are the ",
    "2999": "activities ",
    "3000": "', ",
    "3001": "ories ",
    "3002": "nov",
    "3003": "ustri",
    "3004": "good",
    "3005": "Mad",
    "3006": "began ",
    "3007": "U.S. ",
    "3008": "fund",
    "3009": "six ",
    "3010": "economic ",
    "3011": "relation",
    "3012": "kind ",
    "3013": "adem",
    "3014": "care ",
    "3015": "Sep",
    "3016": "a S",
    "3017": "pizz",
    "3018": "nut",
    "3019": "orid",
    "3020": "what is ",
    "3021": "becom",
    "3022": "ian",
    "3023": "cla",
    "3024": "secur",
    "3025": ".\n\nUser: When ",
    "3026": "t's ",
    "3027": "extre",
    "3028": "highest ",
    "3029": "spend ",
    "3030": "based on the ",
    "3031": "Park",
    "3032": "umb",
    "3033": "Republ",
    "3034": "AT",
    "3035": "8, ",
    "3036": "form of ",
    "3037": "camp",
    "3038": "referred ",
    "3039": "require ",
    "3040": "basketball ",
    "3041": "yl",
    "3042": "original ",
    "3043": "separated ",
    "3044": "initi",
    "3045": "ness ",
    "3046": "effici",
    "3047": "cost",
    "3048": "ribut",
    "3049": "e to ",
    "3050": "subj",
    "3051": "scen",
    "3052": "rock ",
    "3053": "Do",
    "3054": "California ",
    "3055": "lower ",
    "3056": "tion and ",
    "3057": "development ",
    "3058": "ball, ",
    "3059": "this paragraph about ",
    "3060": "oil",
    "3061": "scre",
    "3062": "ets ",
    "3063": "Great ",
    "3064": "\"The ",
    "3065": "Sc",
    "3066": "ing?\nAlmond: ",
    "3067": "all of ",
    "3068": "echan",
    "3069": "method",
    "3070": ". In",
    "3071": "actually ",
    "3072": "ing on ",
    "3073": "tast",
    "3074": " and the ",
    "3075": "ur ",
    "3076": "\u00e2\u0080\u0094",
    "3077": "manufactur",
    "3078": "buy ",
    "3079": "strong ",
    "3080": "a bulleted ",
    "3081": "\n\nUser: Tell me ",
    "3082": "simple ",
    "3083": "occur",
    "3084": "takes ",
    "3085": "road",
    "3086": "hop",
    "3087": "4, ",
    "3088": "Min",
    "3089": "across the ",
    "3090": "tural ",
    "3091": "th of ",
    "3092": "mic",
    "3093": "tool",
    "3094": "software ",
    "3095": "erous ",
    "3096": "winn",
    "3097": "\nAlmond: S",
    "3098": "fer ",
    "3099": "colleg",
    "3100": ".\n\nUser: Identify which instrument is string or percussion: ",
    "3101": "Michael ",
    "3102": "past",
    "3103": "00 ",
    "3104": "zer",
    "3105": "is al",
    "3106": "where the ",
    "3107": "ash ",
    "3108": "trip ",
    "3109": "you to ",
    "3110": "Harry Pot",
    "3111": "ease ",
    "3112": "provided, ",
    "3113": "K-",
    "3114": "13",
    "3115": "ret",
    "3116": "7, ",
    "3117": "results ",
    "3118": "equip",
    "3119": "ability to ",
    "3120": "post",
    "3121": "impact ",
    "3122": "introduc",
    "3123": "ing to the ",
    "3124": "s\n- ",
    "3125": "big",
    "3126": "ence, ",
    "3127": "independ",
    "3128": "box",
    "3129": "join",
    "3130": "ull ",
    "3131": "ics ",
    "3132": "ifi",
    "3133": "is that ",
    "3134": "ung",
    "3135": "put",
    "3136": "Here are ",
    "3137": "Scho",
    "3138": "ator ",
    "3139": "Ital",
    "3140": "Octob",
    "3141": "date ",
    "3142": "nation",
    "3143": "publish",
    "3144": "teams ",
    "3145": "Sup",
    "3146": "resourc",
    "3147": "hous",
    "3148": "s that are ",
    "3149": "es\n",
    "3150": "done ",
    "3151": "ski ",
    "3152": "ed of ",
    "3153": "across ",
    "3154": "antas",
    "3155": "India ",
    "3156": "plants ",
    "3157": "Je",
    "3158": "James ",
    "3159": "is percussion",
    "3160": "summar",
    "3161": "Port",
    "3162": "frequ",
    "3163": "tun",
    "3164": "you're ",
    "3165": "os Angel",
    "3166": "order to ",
    "3167": "built ",
    "3168": "extr",
    "3169": "strateg",
    "3170": "Te",
    "3171": "service ",
    "3172": "cop",
    "3173": "Septem",
    "3174": "a sing",
    "3175": "As ",
    "3176": "significant ",
    "3177": "health ",
    "3178": "format ",
    "3179": "plan ",
    "3180": "Air",
    "3181": "traditional ",
    "3182": "a R",
    "3183": "walk ",
    "3184": "sourc",
    "3185": "ready ",
    "3186": "states ",
    "3187": "the same ",
    "3188": "Span",
    "3189": "species of ",
    "3190": "Sec",
    "3191": "mad",
    "3192": "from a ",
    "3193": "ence of ",
    "3194": "Write a ",
    "3195": "ert ",
    "3196": "clou",
    "3197": "now",
    "3198": "there",
    "3199": "Su",
    "3200": "destin",
    "3201": "snow",
    "3202": ", K",
    "3203": "uly ",
    "3204": "ederal ",
    "3205": "en and ",
    "3206": "cons",
    "3207": "comfor",
    "3208": "All ",
    "3209": "knowled",
    "3210": "sing ",
    "3211": "describe ",
    "3212": "culture",
    "3213": "ering ",
    "3214": "er's ",
    "3215": "y is ",
    "3216": "deb",
    "3217": "ters ",
    "3218": "night ",
    "3219": ",\n",
    "3220": "present ",
    "3221": "uses ",
    "3222": "an and ",
    "3223": "water, ",
    "3224": "ram",
    "3225": "fun ",
    "3226": "particip",
    "3227": "', '",
    "3228": "cup",
    "3229": "priv",
    "3230": "City ",
    "3231": "construc",
    "3232": "ts, ",
    "3233": "adul",
    "3234": "ines",
    "3235": "in the United Stat",
    "3236": ".\n4",
    "3237": "March ",
    "3238": "serve ",
    "3239": "portun",
    "3240": "verse ",
    "3241": "you could ",
    "3242": "training ",
    "3243": "Bel",
    "3244": "ed as a ",
    "3245": "mit",
    "3246": "ation of the ",
    "3247": "areas ",
    "3248": "begin",
    "3249": "Use ",
    "3250": "syn",
    "3251": "til",
    "3252": "recogn",
    "3253": "cell",
    "3254": ") is a ",
    "3255": "targ",
    "3256": "hit ",
    "3257": "concer",
    "3258": "I am ",
    "3259": "Haw",
    "3260": "Vir",
    "3261": "law ",
    "3262": "mechan",
    "3263": "teach",
    "3264": "achiev",
    "3265": "inj",
    "3266": "Ver",
    "3267": "associated ",
    "3268": "half ",
    "3269": "Island",
    "3270": "Mus",
    "3271": "brand",
    "3272": "infl",
    "3273": "y-",
    "3274": "Pol",
    "3275": "measure",
    "3276": "atur",
    "3277": "Tex",
    "3278": "25",
    "3279": "der ",
    "3280": "ved ",
    "3281": "milit",
    "3282": "cord",
    "3283": "telev",
    "3284": "style ",
    "3285": "risk ",
    "3286": "within ",
    "3287": "swe",
    "3288": "perf",
    "3289": "opportun",
    "3290": "What ",
    "3291": "real ",
    "3292": "ensure ",
    "3293": "I would ",
    "3294": "ne ",
    "3295": "mom",
    "3296": "arc",
    "3297": "acces",
    "3298": "ze ",
    "3299": "ude",
    "3300": ". After ",
    "3301": "ings, ",
    "3302": "far ",
    "3303": "wa",
    "3304": "necess",
    "3305": "fish ",
    "3306": "as an ",
    "3307": "should I ",
    "3308": "ester ",
    "3309": "sib",
    "3310": "Ir",
    "3311": "important to ",
    "3312": "Mil",
    "3313": "was born ",
    "3314": "ton, ",
    "3315": "Ter",
    "3316": "source ",
    "3317": "Itali",
    "3318": "force ",
    "3319": "orang",
    "3320": "VI",
    "3321": "Ari",
    "3322": "6, ",
    "3323": "\n\nUser: Identify which ",
    "3324": "a small ",
    "3325": "walk",
    "3326": "oppos",
    "3327": "Peo",
    "3328": "2020",
    "3329": "9, ",
    "3330": "fig",
    "3331": "2.",
    "3332": "domes",
    "3333": "instead ",
    "3334": "album ",
    "3335": "East",
    "3336": "univer",
    "3337": "program",
    "3338": "proces",
    "3339": "war ",
    "3340": "Oly",
    "3341": "led ",
    "3342": "used for ",
    "3343": ".\n\nUser: Name ",
    "3344": "sometimes ",
    "3345": "it to ",
    "3346": "Pal",
    "3347": "easi",
    "3348": "recommend",
    "3349": "baseball ",
    "3350": "whether these ",
    "3351": "American",
    "3352": "NF",
    "3353": "s on the ",
    "3354": "gar",
    "3355": "ee ",
    "3356": "plas",
    "3357": "K(",
    "3358": "in 18",
    "3359": "ampl",
    "3360": "games ",
    "3361": "position ",
    "3362": "concep",
    "3363": "others ",
    "3364": "after the ",
    "3365": "Award",
    "3366": "M ",
    "3367": "highly ",
    "3368": "iddle ",
    "3369": "Str",
    "3370": "took ",
    "3371": ". K",
    "3372": "mos",
    "3373": "or the ",
    "3374": "oce",
    "3375": "15 ",
    "3376": "fall",
    "3377": "princ",
    "3378": "referred to ",
    "3379": "extract the ",
    "3380": "K->",
    "3381": "Cam",
    "3382": "Park ",
    "3383": "Dem",
    "3384": "day, ",
    "3385": "unique ",
    "3386": "party ",
    "3387": "a large ",
    "3388": "hold ",
    "3389": "yell",
    "3390": "omin",
    "3391": "lab",
    "3392": "compon",
    "3393": "mention",
    "3394": "inking ",
    "3395": "value ",
    "3396": "Que",
    "3397": "on your ",
    "3398": "Sou",
    "3399": "2022",
    "3400": "Met",
    "3401": "plant ",
    "3402": "billi",
    "3403": "11 ",
    "3404": "gres",
    "3405": "Cre",
    "3406": "Sun",
    "3407": "in which ",
    "3408": "norm",
    "3409": "pet",
    "3410": "rather ",
    "3411": "canc",
    "3412": "certain ",
    "3413": "Intern",
    "3414": "extinct",
    "3415": "potential ",
    "3416": "Day ",
    "3417": "California",
    "3418": "pher",
    "3419": "FA ",
    "3420": "univers",
    "3421": "alg",
    "3422": "Red ",
    "3423": "y's ",
    "3424": "), and ",
    "3425": "ush ",
    "3426": "into a ",
    "3427": "choose ",
    "3428": "activiti",
    "3429": "\n\nUser: What are some ",
    "3430": "a.\nAlmond: ",
    "3431": "focus ",
    "3432": "check ",
    "3433": "stock ",
    "3434": "planet",
    "3435": "town ",
    "3436": "text, ",
    "3437": "gain",
    "3438": "ests ",
    "3439": "resid",
    "3440": "Olymp",
    "3441": "seen ",
    "3442": "AP",
    "3443": "rout",
    "3444": "whe",
    "3445": "ed?\nAlmond: ",
    "3446": "research ",
    "3447": "ible ",
    "3448": "ucle",
    "3449": "factor",
    "3450": "their own ",
    "3451": "positive ",
    "3452": "further ",
    "3453": "and is ",
    "3454": "structure ",
    "3455": "fruit",
    "3456": ".\n\nUser: Where ",
    "3457": "Inter",
    "3458": "final ",
    "3459": "eal",
    "3460": "ina ",
    "3461": "Cat",
    "3462": "invent",
    "3463": "Golden ",
    "3464": "too",
    "3465": ", who ",
    "3466": "ark",
    "3467": "allows ",
    "3468": "that are ",
    "3469": "oil ",
    "3470": "global ",
    "3471": "him",
    "3472": "night",
    "3473": "function",
    "3474": "widely ",
    "3475": "neigh",
    "3476": "super",
    "3477": "batter",
    "3478": "cros",
    "3479": "AI ",
    "3480": "pow",
    "3481": "emis",
    "3482": "believe ",
    "3483": "in 201",
    "3484": "From the passage provided, ",
    "3485": "gard",
    "3486": "German ",
    "3487": "number",
    "3488": "cam",
    "3489": "former ",
    "3490": "State ",
    "3491": "omet",
    "3492": "humans ",
    "3493": "healthy ",
    "3494": "kind of ",
    "3495": "bott",
    "3496": "you should ",
    "3497": "hot",
    "3498": "look",
    "3499": "st, ",
    "3500": "ric ",
    "3501": "ground",
    "3502": "4-",
    "3503": "city",
    "3504": "agon",
    "3505": "e of a ",
    "3506": "epis",
    "3507": "ef ",
    "3508": "Vi",
    "3509": "\nAlmond: 1",
    "3510": "Tre",
    "3511": "wine ",
    "3512": "ake",
    "3513": "Atl",
    "3514": "September ",
    "3515": "comes ",
    "3516": "fire",
    "3517": "ument",
    "3518": "ious ",
    "3519": "transport",
    "3520": "s can ",
    "3521": "rais",
    "3522": "west ",
    "3523": "band",
    "3524": "phon",
    "3525": "exper",
    "3526": "mountain ",
    "3527": "\n\nUser: Ex",
    "3528": "laun",
    "3529": "el, ",
    "3530": "Eg",
    "3531": "Sk",
    "3532": "Youn",
    "3533": "imag",
    "3534": "ate, ",
    "3535": "a reference text about ",
    "3536": ". It was ",
    "3537": "es.\n\n",
    "3538": "expres",
    "3539": "istic",
    "3540": "t-",
    "3541": "100",
    "3542": "e.g",
    "3543": ".\" ",
    "3544": "went ",
    "3545": "order",
    "3546": "esl",
    "3547": "fli",
    "3548": "heat ",
    "3549": "Bay ",
    "3550": "Lin",
    "3551": "100 ",
    "3552": "second",
    "3553": "y.  ",
    "3554": "vo",
    "3555": "sav",
    "3556": "s) ",
    "3557": "neg",
    "3558": "Fire",
    "3559": "s to be ",
    "3560": "aid ",
    "3561": "technology ",
    "3562": "have to ",
    "3563": "\nM",
    "3564": "rom",
    "3565": "a is a ",
    "3566": "India",
    "3567": "2022 ",
    "3568": "80",
    "3569": "R ",
    "3570": "sil",
    "3571": "a single ",
    "3572": "architect",
    "3573": "An ",
    "3574": "low",
    "3575": "average ",
    "3576": "on and ",
    "3577": "favorite ",
    "3578": "ju",
    "3579": ". You can ",
    "3580": "pen",
    "3581": "mountain",
    "3582": "flo",
    "3583": "grow ",
    "3584": "rup",
    "3585": "Brazil",
    "3586": "spac",
    "3587": "celebr",
    "3588": "Best ",
    "3589": "tennis ",
    "3590": "mine ",
    "3591": "Russi",
    "3592": "Jav",
    "3593": "pap",
    "3594": "\", \"",
    "3595": "building ",
    "3596": "tin",
    "3597": "though",
    "3598": "e.\n\n",
    "3599": "runn",
    "3600": "William ",
    "3601": "liz",
    "3602": "in M",
    "3603": "watch ",
    "3604": "solar ",
    "3605": ".\n\nUser: Why do ",
    "3606": "radi",
    "3607": "ech ",
    "3608": "door",
    "3609": "inf",
    "3610": "However, ",
    "3611": "Ber",
    "3612": "Singap",
    "3613": "Bec",
    "3614": "period",
    "3615": "does",
    "3616": "gin",
    "3617": "President ",
    "3618": "sett",
    "3619": "reason ",
    "3620": "bag",
    "3621": "whole ",
    "3622": "ai ",
    "3623": "Los Angel",
    "3624": "young ",
    "3625": "ers of ",
    "3626": "mess",
    "3627": "s and the ",
    "3628": "ockey ",
    "3629": "Based on the ",
    "3630": "understand ",
    "3631": ".\t",
    "3632": "Japanese ",
    "3633": "beh",
    "3634": "ocr",
    "3635": "ines ",
    "3636": "ad, ",
    "3637": "situ",
    "3638": "can I ",
    "3639": "idea ",
    "3640": "pay ",
    "3641": "detail",
    "3642": "exec",
    "3643": "Rec",
    "3644": "to have ",
    "3645": "color ",
    "3646": "Des",
    "3647": "commer",
    "3648": "habit",
    "3649": "Boston ",
    "3650": "es.\n\nUser: ",
    "3651": "club ",
    "3652": ", C",
    "3653": "vegetabl",
    "3654": "above ",
    "3655": "Not ",
    "3656": "Football ",
    "3657": "league ",
    "3658": "step ",
    "3659": "instruc",
    "3660": "programming ",
    "3661": "Ama",
    "3662": "the ball ",
    "3663": "ue, ",
    "3664": "craf",
    "3665": "match",
    "3666": "acqu",
    "3667": ". If you ",
    "3668": "gent",
    "3669": "science ",
    "3670": "give me ",
    "3671": "Ab",
    "3672": "ike ",
    "3673": "Fil",
    "3674": "ket ",
    "3675": "City",
    "3676": "ed by a ",
    "3677": "domin",
    "3678": "itch ",
    "3679": "ers are ",
    "3680": ". While ",
    "3681": "soccer ",
    "3682": "analys",
    "3683": "Chicago ",
    "3684": "time to ",
    "3685": "vice ",
    "3686": "tion of the ",
    "3687": "Sal",
    "3688": "ograph",
    "3689": "bank ",
    "3690": "ith",
    "3691": "standard ",
    "3692": "attr",
    "3693": ".\n\nUser: Classify each of the following ",
    "3694": "io ",
    "3695": "tend",
    "3696": "viol",
    "3697": "s such as ",
    "3698": "ery ",
    "3699": "chem",
    "3700": "s. It ",
    "3701": "Pe",
    "3702": "protein ",
    "3703": "liqu",
    "3704": "requires ",
    "3705": "Lake ",
    "3706": "ation in ",
    "3707": "fall ",
    "3708": "like to ",
    "3709": "ership ",
    "3710": "havi",
    "3711": "ause of ",
    "3712": "in their ",
    "3713": "international ",
    "3714": "ing from ",
    "3715": "e that ",
    "3716": "sho",
    "3717": "prevent ",
    "3718": "ely",
    "3719": ". It's ",
    "3720": "km",
    "3721": "tend ",
    "3722": "longer ",
    "3723": "advanc",
    "3724": "ing with ",
    "3725": "list of the ",
    "3726": "Ever",
    "3727": "ani",
    "3728": "recent ",
    "3729": "n, ",
    "3730": "pick",
    "3731": "chees",
    "3732": "Cup ",
    "3733": "leng",
    "3734": "use of ",
    "3735": "Mod",
    "3736": "ana ",
    "3737": "My ",
    "3738": "fill",
    "3739": "ideas ",
    "3740": "ayl",
    "3741": "format",
    "3742": "meet",
    "3743": "vent",
    "3744": "previ",
    "3745": "mind",
    "3746": "..",
    "3747": ". Ad",
    "3748": "log",
    "3749": "World War ",
    "3750": "products ",
    "3751": "child ",
    "3752": "carb",
    "3753": "understand",
    "3754": "past ",
    "3755": "foo",
    "3756": "dish",
    "3757": ".  This ",
    "3758": "aw ",
    "3759": "Stre",
    "3760": "iness ",
    "3761": "ements ",
    "3762": "/ ",
    "3763": "        ",
    "3764": "distance ",
    "3765": "themsel",
    "3766": "question",
    "3767": "period ",
    "3768": "cat ",
    "3769": ", it ",
    "3770": "attemp",
    "3771": "Jer",
    "3772": "pack",
    "3773": "pp",
    "3774": "If you ",
    "3775": "side",
    "3776": "example ",
    "3777": "sequenc",
    "3778": "she",
    "3779": "strong",
    "3780": "\nR",
    "3781": "region ",
    "3782": "share ",
    "3783": "dang",
    "3784": "ocol",
    "3785": "million",
    "3786": "seven ",
    "3787": "ane ",
    "3788": "Gl",
    "3789": "Florid",
    "3790": "Most ",
    "3791": "return",
    "3792": "sauc",
    "3793": "tax",
    "3794": "one of the most ",
    "3795": "well-",
    "3796": "dou",
    "3797": "even",
    "3798": "career ",
    "3799": "throughout the ",
    "3800": "song ",
    "3801": "hun",
    "3802": "ity to ",
    "3803": "quarter",
    "3804": "avoid ",
    "3805": "s, but ",
    "3806": "in 200",
    "3807": "Pac",
    "3808": "mun",
    "3809": "set of ",
    "3810": "product ",
    "3811": "when you ",
    "3812": "jour",
    "3813": "s' ",
    "3814": "world's ",
    "3815": "iver ",
    "3816": "Fri",
    "3817": "ments ",
    "3818": "behavi",
    "3819": "company",
    "3820": "yourself ",
    "3821": "estiv",
    "3822": "11",
    "3823": ".\n\nUser: Who is ",
    "3824": "Thom",
    "3825": "ed as the ",
    "3826": "relig",
    "3827": ". In the ",
    "3828": "involv",
    "3829": "golf ",
    "3830": "Super ",
    "3831": "performance ",
    "3832": "minim",
    "3833": "Hum",
    "3834": ".\"",
    "3835": "November ",
    "3836": "a-",
    "3837": "Another ",
    "3838": "owever ",
    "3839": "America",
    "3840": "regular ",
    "3841": "ed at ",
    "3842": "emo",
    "3843": "(200",
    "3844": "includes ",
    "3845": "include",
    "3846": "came ",
    "3847": "tire",
    "3848": "flow",
    "3849": "swimm",
    "3850": "prefer",
    "3851": "soci",
    "3852": "grav",
    "3853": "a list of the ",
    "3854": "bird",
    "3855": "Many ",
    "3856": "o and ",
    "3857": "emb",
    "3858": "toward",
    "3859": "ans, ",
    "3860": "With ",
    "3861": "mid",
    "3862": "prepar",
    "3863": "mol",
    "3864": "es with ",
    "3865": "race ",
    "3866": "Chinese ",
    "3867": "benefit",
    "3868": "bul",
    "3869": "190",
    "3870": "position",
    "3871": "Cong",
    "3872": "military ",
    "3873": "Nether",
    "3874": "instit",
    "3875": "quality ",
    "3876": "ated to ",
    "3877": ". This is ",
    "3878": "band ",
    "3879": "character ",
    "3880": "speak",
    "3881": "inte",
    "3882": "jud",
    "3883": "\u00e2\u0080\u00a2 ",
    "3884": "going to ",
    "3885": "\nP",
    "3886": "mel",
    "3887": "ient ",
    "3888": "bit ",
    "3889": "from",
    "3890": "them to ",
    "3891": "Mag",
    "3892": "Sol",
    "3893": "exercise ",
    "3894": ",\u00c2\u00a0",
    "3895": "surv",
    "3896": "or to ",
    "3897": "First ",
    "3898": "easily ",
    "3899": "if the ",
    "3900": "olk",
    "3901": "ump ",
    "3902": "1980",
    "3903": "uck ",
    "3904": "s - ",
    "3905": "mamm",
    "3906": "is the best ",
    "3907": "ais",
    "3908": "CE",
    "3909": "complex ",
    "3910": "capit",
    "3911": "practice ",
    "3912": "side of the ",
    "3913": "Jord",
    "3914": "\n-",
    "3915": "Lak",
    "3916": "suppl",
    "3917": "championship",
    "3918": "they were ",
    "3919": "altern",
    "3920": "was an ",
    "3921": "Netherland",
    "3922": "compet",
    "3923": "network",
    "3924": "les, ",
    "3925": "sound",
    "3926": "sand",
    "3927": "vill",
    "3928": "phot",
    "3929": "19 ",
    "3930": "Emp",
    "3931": "74",
    "3932": "Do ",
    "3933": "fle",
    "3934": ".\n\nUser: Is ",
    "3935": "Mat",
    "3936": "Mari",
    "3937": "brid",
    "3938": "26",
    "3939": "accord",
    "3940": "ing for ",
    "3941": "\" and ",
    "3942": "purchas",
    "3943": "write ",
    "3944": "saw ",
    "3945": "within the ",
    "3946": "atten",
    "3947": "cold ",
    "3948": "as it ",
    "3949": "Mor",
    "3950": "home",
    "3951": "a great ",
    "3952": "techniqu",
    "3953": "ectr",
    "3954": "online ",
    "3955": "son, ",
    "3956": "support",
    "3957": ", H",
    "3958": "ama ",
    "3959": "effective ",
    "3960": "England ",
    "3961": "blue ",
    "3962": "numbers ",
    "3963": "event ",
    "3964": "temperature ",
    "3965": "although ",
    "3966": "special ",
    "3967": "Veg",
    "3968": "ties ",
    "3969": "mind ",
    "3970": "days ",
    "3971": "Gal",
    "3972": "lot",
    "3973": "ation is ",
    "3974": "alized ",
    "3975": "stream",
    "3976": "\n6",
    "3977": "cli",
    "3978": "December ",
    "3979": "Earth ",
    "3980": "People ",
    "3981": "Earth",
    "3982": "use a ",
    "3983": "means ",
    "3984": "offer ",
    "3985": "fram",
    "3986": "Arizon",
    "3987": "behind ",
    "3988": "helps ",
    "3989": "rosof",
    "3990": "ance, ",
    "3991": "evel",
    "3992": "conf",
    "3993": "It's ",
    "3994": "June ",
    "3995": "adj",
    "3996": "replac",
    "3997": ".  It ",
    "3998": "little ",
    "3999": "all, ",
    "4000": "os, ",
    "4001": "\n\nUser: What are ",
    "4002": "nucle",
    "4003": "web",
    "4004": "line",
    "4005": "Lat",
    "4006": "big ",
    "4007": "Based on ",
    "4008": "Big ",
    "4009": "asc",
    "4010": "White ",
    "4011": "ate them ",
    "4012": "October ",
    "4013": "central ",
    "4014": "Vis",
    "4015": "ation for ",
    "4016": "?\nAlmond: T",
    "4017": "politic",
    "4018": "Soc",
    "4019": "After ",
    "4020": "able, ",
    "4021": "expect",
    "4022": "offers ",
    "4023": "s, such as ",
    "4024": "purpos",
    "4025": "e, but ",
    "4026": "this paragraph",
    "4027": "train ",
    "4028": "ably ",
    "4029": "ection",
    "4030": "antly ",
    "4031": "bri",
    "4032": "y. The ",
    "4033": "ny ",
    "4034": "design ",
    "4035": "high-",
    "4036": "quickly ",
    "4037": "International ",
    "4038": "classi",
    "4039": "place to ",
    "4040": "San Francisco ",
    "4041": "win ",
    "4042": "uel ",
    "4043": "rep",
    "4044": "er for ",
    "4045": "sleep",
    "4046": "societ",
    "4047": "edic",
    "4048": "2021",
    "4049": "+ ",
    "4050": "less",
    "4051": "Can you ",
    "4052": "olf ",
    "4053": "dail",
    "4054": "ang ",
    "4055": "COVI",
    "4056": "music",
    "4057": "reli",
    "4058": "als, ",
    "4059": "Accord",
    "4060": "respec",
    "4061": "mac",
    "4062": "For example, ",
    "4063": "ept ",
    "4064": "50 ",
    "4065": "AI",
    "4066": "finish",
    "4067": "test",
    "4068": "cou",
    "4069": "Go",
    "4070": "almost ",
    "4071": "Star",
    "4072": "indi",
    "4073": "rock",
    "4074": "\nT",
    "4075": "beach",
    "4076": "roph",
    "4077": "fail",
    "4078": "television ",
    "4079": "inner ",
    "4080": "ence",
    "4081": "services ",
    "4082": "is a species of ",
    "4083": "won",
    "4084": "today",
    "4085": "known as the ",
    "4086": "do I ",
    "4087": "lack ",
    "4088": "consol",
    "4089": "best",
    "4090": "sens",
    "4091": "But ",
    "4092": "nit",
    "4093": "resh ",
    "4094": "sound ",
    "4095": "ment, ",
    "4096": "udd",
    "4097": "host",
    "4098": "27",
    "4099": "explor",
    "4100": "als: ",
    "4101": "Mart",
    "4102": "can help ",
    "4103": "thought ",
    "4104": "y: ",
    "4105": "cup ",
    "4106": "Harry Potter ",
    "4107": "ounc",
    "4108": "stop ",
    "4109": "s. S",
    "4110": "oog",
    "4111": "so, ",
    "4112": "s by ",
    "4113": "particul",
    "4114": "Your ",
    "4115": "believ",
    "4116": "taking ",
    "4117": "D-",
    "4118": "Washington ",
    "4119": "wrot",
    "4120": "99",
    "4121": "pic",
    "4122": "test ",
    "4123": "\n\nUser: What is a ",
    "4124": "case ",
    "4125": "found in ",
    "4126": "\nL",
    "4127": "ice, ",
    "4128": "of your ",
    "4129": "determin",
    "4130": "gir",
    "4131": "arri",
    "4132": "decid",
    "4133": "zz",
    "4134": "instrument",
    "4135": "es, the ",
    "4136": "bud",
    "4137": "effor",
    "4138": "approach ",
    "4139": "ons ",
    "4140": "\nThe ",
    "4141": "winter ",
    "4142": "guitar",
    "4143": "official ",
    "4144": "al and ",
    "4145": "via ",
    "4146": "bear",
    "4147": "3.",
    "4148": "u, ",
    "4149": "decision",
    "4150": "ned ",
    "4151": "down the ",
    "4152": "network ",
    "4153": "figh",
    "4154": "want",
    "4155": "thes",
    "4156": "e for ",
    "4157": "s?\nAlmond: The ",
    "4158": "feet ",
    "4159": "tax ",
    "4160": "devic",
    "4161": "east",
    "4162": "compos",
    "4163": "that you ",
    "4164": "Grand ",
    "4165": "task",
    "4166": "ca",
    "4167": "keep",
    "4168": ". We ",
    "4169": "ens ",
    "4170": "are not ",
    "4171": "ri ",
    "4172": "Black ",
    "4173": "prec",
    "4174": "omb",
    "4175": "sor",
    "4176": "ed into ",
    "4177": "are: ",
    "4178": "All",
    "4179": "develop ",
    "4180": "Febr",
    "4181": "price ",
    "4182": "summer ",
    "4183": "did the ",
    "4184": "pep",
    "4185": "1) ",
    "4186": "?\nAlmond: In ",
    "4187": ".\n\nUser: Extract the ",
    "4188": "iet ",
    "4189": "observ",
    "4190": "August ",
    "4191": "admin",
    "4192": "four",
    "4193": "ing.  ",
    "4194": "perform ",
    "4195": "end of the ",
    "4196": "call ",
    "4197": "Provid",
    "4198": "And",
    "4199": "method ",
    "4200": "ure, ",
    "4201": "are all ",
    "4202": "ology ",
    "4203": "overall ",
    "4204": "media ",
    "4205": "until the ",
    "4206": "a\n- ",
    "4207": "ench",
    "4208": "Cup",
    "4209": "n\u00e2\u0080\u0099t ",
    "4210": "electric",
    "4211": "VP",
    "4212": "in 199",
    "4213": "scal",
    "4214": "Pat",
    "4215": "\u00e2\u0080\u0098",
    "4216": "optim",
    "4217": "diseas",
    "4218": "Colleg",
    "4219": "smo",
    "4220": "iPh",
    "4221": "ane",
    "4222": "estim",
    "4223": ". His ",
    "4224": "ion, ",
    "4225": "spir",
    "4226": "or of ",
    "4227": "amaz",
    "4228": "pick ",
    "4229": "Cal",
    "4230": "extrem",
    "4231": "major",
    "4232": "intel",
    "4233": "intellig",
    "4234": "suit",
    "4235": "X ",
    "4236": "corpor",
    "4237": "emerg",
    "4238": "Ros",
    "4239": "examples of ",
    "4240": "cricket ",
    "4241": "contact ",
    "4242": "antic ",
    "4243": "II ",
    "4244": "ux",
    "4245": "attack",
    "4246": "64",
    "4247": "e of the ",
    "4248": "ed his ",
    "4249": "er-",
    "4250": "ride ",
    "4251": "directly ",
    "4252": "sugg",
    "4253": "say",
    "4254": "most",
    "4255": "in and ",
    "4256": "clear ",
    "4257": "artist",
    "4258": "surface ",
    "4259": "temperature",
    "4260": "all of the ",
    "4261": "ano ",
    "4262": "provides ",
    "4263": "in an ",
    "4264": "New Z",
    "4265": "New Zeal",
    "4266": "answer ",
    "4267": "ed, and ",
    "4268": "\nD",
    "4269": "they have ",
    "4270": "name of the ",
    "4271": "mob",
    "4272": "phil",
    "4273": "respond",
    "4274": "math",
    "4275": "risti",
    "4276": "Game of ",
    "4277": "Mac",
    "4278": "David ",
    "4279": "atively ",
    "4280": "animals ",
    "4281": "what is the ",
    "4282": "t is ",
    "4283": "ences ",
    "4284": "quot",
    "4285": "Sch",
    "4286": "May ",
    "4287": "alco",
    "4288": "track ",
    "4289": "Electr",
    "4290": ". Se",
    "4291": "store ",
    "4292": "pil",
    "4293": "a new ",
    "4294": "King ",
    "4295": "growing ",
    "4296": "oldest ",
    "4297": "ub ",
    "4298": "cast",
    "4299": "distribu",
    "4300": "am, ",
    "4301": "Vall",
    "4302": "augh",
    "4303": "in the world ",
    "4304": "polic",
    "4305": "successful ",
    "4306": "rank",
    "4307": "Thron",
    "4308": "the other ",
    "4309": "s. In ",
    "4310": "weigh",
    "4311": "pose ",
    "4312": "ere is a ",
    "4313": "primarily ",
    "4314": "required ",
    "4315": "engine ",
    "4316": "indic",
    "4317": "currently ",
    "4318": ".\n\nUser: What is the difference between ",
    "4319": "muse",
    "4320": "gene",
    "4321": "want ",
    "4322": "defe",
    "4323": "July ",
    "4324": "it and ",
    "4325": "appoint",
    "4326": "eder",
    "4327": "single ",
    "4328": "tion to ",
    "4329": "fied ",
    "4330": "agre",
    "4331": "machine ",
    "4332": ": The ",
    "4333": "y of the ",
    "4334": "Ice ",
    "4335": "to help ",
    "4336": "eograph",
    "4337": "ation (",
    "4338": "integr",
    "4339": "ing that ",
    "4340": "most common ",
    "4341": "ance of ",
    "4342": "break ",
    "4343": "state of ",
    "4344": "with your ",
    "4345": "continue ",
    "4346": "trail",
    "4347": "for your ",
    "4348": "in this ",
    "4349": "Rich",
    "4350": "United King",
    "4351": "Cour",
    "4352": "already ",
    "4353": ".\n\nUser: Which of the following ",
    "4354": "ages ",
    "4355": "Reg",
    "4356": "AS",
    "4357": "originally ",
    "4358": "Isl",
    "4359": "1,",
    "4360": "Carol",
    "4361": "comma ",
    "4362": "connect",
    "4363": "ection ",
    "4364": "Alex",
    "4365": "ler ",
    "4366": "40",
    "4367": "identify ",
    "4368": "beach ",
    "4369": "Alask",
    "4370": "forward ",
    "4371": "Wil",
    "4372": "Pet",
    "4373": "edd",
    "4374": "accompl",
    "4375": "Tesl",
    "4376": "self-",
    "4377": "mig",
    "4378": "up the ",
    "4379": "esh",
    "4380": "guitar ",
    "4381": "worth ",
    "4382": "basic ",
    "4383": "due to the ",
    "4384": "Amaz",
    "4385": "abe",
    "4386": "calcul",
    "4387": "s. \n\n",
    "4388": "deliver",
    "4389": "sleep ",
    "4390": "Er",
    "4391": "blood ",
    "4392": "matter ",
    "4393": "Ag",
    "4394": "promot",
    "4395": "er, and ",
    "4396": "Christ",
    "4397": "Tayl",
    "4398": "90",
    "4399": "fit",
    "4400": "where",
    "4401": "under the ",
    "4402": "far",
    "4403": "ster",
    "4404": "cover ",
    "4405": "ed in a ",
    "4406": "fore ",
    "4407": "rather than ",
    "4408": "micro",
    "4409": "discover",
    "4410": "edi",
    "4411": ". As ",
    "4412": "or and ",
    "4413": ".\n5",
    "4414": "starting ",
    "4415": "trip",
    "4416": "Day",
    "4417": "album",
    "4418": "golf",
    "4419": "doll",
    "4420": "Wood",
    "4421": "Star ",
    "4422": "mier ",
    "4423": "did",
    "4424": "She",
    "4425": "has the ",
    "4426": "determine ",
    "4427": "have the ",
    "4428": "heart ",
    "4429": "Central ",
    "4430": "Adam",
    "4431": "14 ",
    "4432": "atis",
    "4433": "Paul",
    "4434": "e\n- ",
    "4435": "evid",
    "4436": "I was ",
    "4437": "Eng",
    "4438": "parts ",
    "4439": ". For example, ",
    "4440": "uth",
    "4441": "range of ",
    "4442": "ent and ",
    "4443": "distinc",
    "4444": "summer",
    "4445": "s, which ",
    "4446": "spread ",
    "4447": ", F",
    "4448": "depends on ",
    "4449": "treat",
    "4450": "lead to ",
    "4451": "America ",
    "4452": "drink ",
    "4453": "ana, ",
    "4454": "nice ",
    "4455": "itzer",
    "4456": "private ",
    "4457": "From the passage provided, extract the ",
    "4458": "approxim",
    "4459": "Sci",
    "4460": "holid",
    "4461": "winning ",
    "4462": "musical ",
    "4463": "Chil",
    "4464": "claim",
    "4465": "Game of Thron",
    "4466": "\u00c3\u00a1",
    "4467": ".\n\nUser: Give me a list of ",
    "4468": "y, the ",
    "4469": "also known as ",
    "4470": "simply ",
    "4471": "ress",
    "4472": "like the ",
    "4473": "credi",
    "4474": "make sure ",
    "4475": "commerc",
    "4476": "mission",
    "4477": "neu",
    "4478": ".\n\nUser: List ",
    "4479": "ll",
    "4480": "take a ",
    "4481": "ley ",
    "4482": "boat",
    "4483": "out of the ",
    "4484": "selling ",
    "4485": "sibil",
    "4486": "warm ",
    "4487": "Hy",
    "4488": "population ",
    "4489": "buy",
    "4490": "weight",
    "4491": "ezuel",
    "4492": "anchester ",
    "4493": "complete ",
    "4494": "enz",
    "4495": "Syst",
    "4496": "territ",
    "4497": "aster",
    "4498": "in-",
    "4499": "critical ",
    "4500": "bicy",
    "4501": "New",
    "4502": "ness",
    "4503": "gen ",
    "4504": "it\u00e2\u0080\u0099s ",
    "4505": "conduc",
    "4506": "ists ",
    "4507": "ts to ",
    "4508": "Gi",
    "4509": "Bal",
    "4510": "16 ",
    "4511": "Pan",
    "4512": "molec",
    "4513": "genom",
    "4514": "additional ",
    "4515": "analy",
    "4516": "everyone ",
    "4517": "follow ",
    "4518": "card ",
    "4519": "scap",
    "4520": "Hel",
    "4521": "useful",
    "4522": "moving ",
    "4523": "ah ",
    "4524": "ford ",
    "4525": "expensive ",
    "4526": "Australian ",
    "4527": "operating ",
    "4528": "Pyth",
    "4529": "surfac",
    "4530": "owl ",
    "4531": "Egyp",
    "4532": "Seattle ",
    "4533": "got ",
    "4534": "Hawai",
    "4535": "doesn't ",
    "4536": "engag",
    "4537": "ematic",
    "4538": "DN",
    "4539": "time and ",
    "4540": "ft",
    "4541": "\nC",
    "4542": "s. This ",
    "4543": "milk ",
    "4544": "ditionally, ",
    "4545": "offici",
    "4546": "rain ",
    "4547": "income ",
    "4548": "king",
    "4549": "Crick",
    "4550": "Av",
    "4551": "America, ",
    "4552": "cheese ",
    "4553": "?\nAlmond: N",
    "4554": "Lord ",
    "4555": "U ",
    "4556": "instead of ",
    "4557": "X-",
    "4558": "Ind",
    "4559": "doing ",
    "4560": "daily ",
    "4561": "kil",
    "4562": "ling ",
    "4563": "rok",
    "4564": "aid",
    "4565": "Venezuel",
    "4566": "might be ",
    "4567": "yog",
    "4568": "is a species of fish",
    "4569": "is a species of fish? ",
    "4570": "ally",
    "4571": "pas",
    "4572": "again ",
    "4573": ". To ",
    "4574": "Em",
    "4575": "e\" ",
    "4576": "rect",
    "4577": "study ",
    "4578": "said ",
    "4579": "ins ",
    "4580": "speed ",
    "4581": "nature ",
    "4582": "reduce ",
    "4583": "defini",
    "4584": "Ham",
    "4585": "miles ",
    "4586": "e.\nAlmond: ",
    "4587": "trad",
    "4588": "reach ",
    "4589": "Bre",
    "4590": "back to ",
    "4591": "ix ",
    "4592": "Spain",
    "4593": "seed",
    "4594": "shor",
    "4595": "choic",
    "4596": "appli",
    "4597": "green",
    "4598": "lock",
    "4599": "easy to ",
    "4600": "on is ",
    "4601": "s; ",
    "4602": "aren",
    "4603": "fem",
    "4604": "USA",
    "4605": "cook ",
    "4606": "2) ",
    "4607": "thi",
    "4608": "Ko",
    "4609": "Jos",
    "4610": "things to ",
    "4611": "Nintend",
    "4612": "s] ",
    "4613": "history",
    "4614": "comma separated ",
    "4615": "13 ",
    "4616": "box ",
    "4617": "insur",
    "4618": "security ",
    "4619": "job ",
    "4620": "scientif",
    "4621": "mission ",
    "4622": "cast ",
    "4623": "Provide ",
    "4624": "climb",
    "4625": "below ",
    "4626": "extremely ",
    "4627": "ynam",
    "4628": "terms of ",
    "4629": "island",
    "4630": "vinc",
    "4631": "cris",
    "4632": "ingredient",
    "4633": "fresh ",
    "4634": "achieve ",
    "4635": "hydro",
    "4636": "I'm ",
    "4637": "member of the ",
    "4638": "shif",
    "4639": "immedi",
    "4640": "typical ",
    "4641": "East ",
    "4642": "guid",
    "4643": "Red",
    "4644": "192",
    "4645": "refl",
    "4646": "responsible ",
    "4647": "Western ",
    "4648": "nutri",
    "4649": "ado",
    "4650": "oss",
    "4651": "touch",
    "4652": "Viet",
    "4653": "orith",
    "4654": "K)",
    "4655": "started ",
    "4656": "last",
    "4657": "Microsof",
    "4658": "title ",
    "4659": "leave ",
    "4660": "liter",
    "4661": ": \"",
    "4662": ". And ",
    "4663": "kind",
    "4664": "problem ",
    "4665": "smaller ",
    "4666": "drum",
    "4667": "bodi",
    "4668": "CA",
    "4669": "edit",
    "4670": "Oce",
    "4671": "middle ",
    "4672": "ude ",
    "4673": "you need to ",
    "4674": "location",
    "4675": "gas ",
    "4676": "thous",
    "4677": "control",
    "4678": "entire ",
    "4679": "God",
    "4680": "rip",
    "4681": "or S",
    "4682": "on S",
    "4683": "pac",
    "4684": "Ob",
    "4685": "minutes ",
    "4686": "by a ",
    "4687": "produce ",
    "4688": "astr",
    "4689": "consists of ",
    "4690": "iss ",
    "4691": "located in ",
    "4692": "utive ",
    "4693": "iam",
    "4694": "ation to ",
    "4695": ". Ch",
    "4696": "so that ",
    "4697": "Jon",
    "4698": "rice ",
    "4699": "child",
    "4700": "reven",
    "4701": "particularly ",
    "4702": "Argent",
    "4703": "connec",
    "4704": ".\n\nUser: Given this paragraph about ",
    "4705": "spok",
    "4706": "au ",
    "4707": "iri",
    "4708": "hockey ",
    "4709": "a,No\n ",
    "4710": "secs] ",
    "4711": "including the ",
    "4712": "dimen",
    "4713": "items ",
    "4714": "ficial ",
    "4715": "roll",
    "4716": "simpl",
    "4717": "batt",
    "4718": "fit ",
    "4719": "however, ",
    "4720": "east ",
    "4721": "wall",
    "4722": "surround",
    "4723": "commercial ",
    "4724": "weal",
    "4725": "bring ",
    "4726": "January ",
    "4727": "neighbor",
    "4728": "city of ",
    "4729": "course ",
    "4730": ". One ",
    "4731": "does the ",
    "4732": "kill",
    "4733": "friend ",
    "4734": "es.\n",
    "4735": "cut ",
    "4736": "oppon",
    "4737": "February ",
    "4738": "India, ",
    "4739": "factors ",
    "4740": "pal",
    "4741": "2023",
    "4742": "(201",
    "4743": "direct ",
    "4744": "Leg",
    "4745": "hydr",
    "4746": "adop",
    "4747": "contain ",
    "4748": "different types of ",
    "4749": "sell ",
    "4750": "English",
    "4751": "taken ",
    "4752": "s. Th",
    "4753": "spot",
    "4754": "Song ",
    "4755": "try to ",
    "4756": "to do ",
    "4757": "particular ",
    "4758": "future ",
    "4759": "recip",
    "4760": "listen",
    "4761": "row",
    "4762": "near",
    "4763": "winter",
    "4764": "ant, ",
    "4765": "about a ",
    "4766": "as they ",
    "4767": "1990",
    "4768": "atmos",
    "4769": "cod",
    "4770": "were the ",
    "4771": "ugg",
    "4772": "ating the ",
    "4773": "comput",
    "4774": "nic",
    "4775": "s)",
    "4776": "Base",
    "4777": "s to the ",
    "4778": "conven",
    "4779": "fantas",
    "4780": "round ",
    "4781": "code ",
    "4782": "Dep",
    "4783": "Arab",
    "4784": "MVP",
    "4785": "off the ",
    "4786": "Scot",
    "4787": "because of ",
    "4788": "assist",
    "4789": "vil",
    "4790": "?\nAlmond: L",
    "4791": "eventually ",
    "4792": "den",
    "4793": "episod",
    "4794": "wav",
    "4795": "first",
    "4796": "natur",
    "4797": "accep",
    "4798": "contribut",
    "4799": "seem",
    "4800": "\nK",
    "4801": "phen",
    "4802": "ner ",
    "4803": "oon ",
    "4804": "you want to ",
    "4805": ". Once ",
    "4806": "cut",
    "4807": "ham",
    "4808": "bond",
    "4809": "digital ",
    "4810": "ior ",
    "4811": "cloud ",
    "4812": "Fre",
    "4813": ".\n\nIn ",
    "4814": "appropri",
    "4815": "ts",
    "4816": "in S",
    "4817": "chocol",
    "4818": "e.\n\nUser: ",
    "4819": "Mast",
    "4820": "predic",
    "4821": "cardi",
    "4822": "growth ",
    "4823": "Ju",
    "4824": "lun",
    "4825": "?\nAlmond: P",
    "4826": "score ",
    "4827": "COVID-",
    "4828": "draw",
    "4829": "leading ",
    "4830": "document",
    "4831": "Republic",
    "4832": "like a ",
    "4833": "management ",
    "4834": "Italian ",
    "4835": "theory ",
    "4836": "because it ",
    "4837": "climate ",
    "4838": "base ",
    "4839": "t for ",
    "4840": "Pacific ",
    "4841": "osp",
    "4842": "walking ",
    "4843": "% of ",
    "4844": "acts ",
    "4845": "perfect ",
    "4846": "s, or ",
    "4847": "e, or ",
    "4848": "approximately ",
    "4849": "numerous ",
    "4850": "edul",
    "4851": "Portug",
    "4852": "domestic",
    "4853": "necessary ",
    "4854": "NE",
    "4855": "algorith",
    "4856": "lar",
    "4857": "Part",
    "4858": "western ",
    "4859": "Dut",
    "4860": "hik",
    "4861": "ary, ",
    "4862": "useful ",
    "4863": "i.",
    "4864": "Arch",
    "4865": ". But ",
    "4866": "had a ",
    "4867": "e.\n",
    "4868": "flav",
    "4869": "emon ",
    "4870": "?\nAlmond: B",
    "4871": "UK",
    "4872": "approach",
    "4873": "sold ",
    "4874": "search",
    "4875": "lost ",
    "4876": "paint",
    "4877": "medical ",
    "4878": "actions ",
    "4879": "er (",
    "4880": "environment ",
    "4881": "of S",
    "4882": "es such as ",
    "4883": "pitch",
    "4884": "member",
    "4885": "square ",
    "4886": "industry ",
    "4887": "danc",
    "4888": "England",
    "4889": "s. They ",
    "4890": "candi",
    "4891": "ation, and ",
    "4892": "ing on the ",
    "4893": "processing ",
    "4894": "IS",
    "4895": "ate them with a ",
    "4896": "compared to ",
    "4897": ". U",
    "4898": "jack",
    "4899": "you would ",
    "4900": "parent",
    "4901": "Kore",
    "4902": "Charles ",
    "4903": "I have ",
    "4904": "author",
    "4905": "public",
    "4906": "Democr",
    "4907": "mathematic",
    "4908": "activity ",
    "4909": "bike ",
    "4910": "investment ",
    "4911": "options ",
    "4912": "scientific ",
    "4913": "\u00e2\u0080\u0099 ",
    "4914": "-time ",
    "4915": "earth",
    "4916": "const",
    "4917": "s in a ",
    "4918": "nomin",
    "4919": "range ",
    "4920": "ano",
    "4921": "y\nAlmond: ",
    "4922": "Los Angeles ",
    "4923": "shot ",
    "4924": "wil",
    "4925": "San Francisco",
    "4926": "gets ",
    "4927": "limited ",
    "4928": "fol",
    "4929": "maintain",
    "4930": "trying to ",
    "4931": "kids ",
    "4932": "who are ",
    "4933": "version ",
    "4934": "characters ",
    "4935": ", A",
    "4936": "ended ",
    "4937": "colon",
    "4938": "Comp",
    "4939": "college ",
    "4940": "\n\nThe ",
    "4941": "pret",
    "4942": "must be ",
    "4943": "tell ",
    "4944": "ald ",
    "4945": "potato",
    "4946": "ipp",
    "4947": "plastic ",
    "4948": "is in ",
    "4949": "60",
    "4950": "go to ",
    "4951": "use the ",
    "4952": "parents ",
    "4953": "age. ",
    "4954": "federal ",
    "4955": "e, which ",
    "4956": "Bol",
    "4957": "revol",
    "4958": "hund",
    "4959": "din",
    "4960": "expos",
    "4961": "Are ",
    "4962": "There are many ",
    "4963": "is an American ",
    "4964": "ty, ",
    "4965": "cannot ",
    "4966": "spl",
    "4967": "fly ",
    "4968": "football",
    "4969": ".\n\nUser: Why is ",
    "4970": "death ",
    "4971": "associated with ",
    "4972": "fix",
    "4973": "28",
    "4974": "ing their ",
    "4975": "years, ",
    "4976": "ML",
    "4977": "urb",
    "4978": "as well",
    "4979": "Bur",
    "4980": "planet ",
    "4981": "drink",
    "4982": "fro",
    "4983": "monit",
    "4984": "bowl",
    "4985": "as \"",
    "4986": "coming ",
    "4987": "south ",
    "4988": "how much ",
    "4989": "mix ",
    "4990": "Texas ",
    "4991": "Goog",
    "4992": "Sen",
    "4993": "\u00c3\u00ad",
    "4994": "earli",
    "4995": "Civ",
    "4996": "ized ",
    "4997": "e in the ",
    "4998": "te ",
    "4999": "heavy ",
    "5000": "philos",
    "5001": "dimension",
    "5002": "divis",
    "5003": "yr",
    "5004": "opin",
    "5005": "question ",
    "5006": "ies and ",
    "5007": "Out",
    "5008": "make a ",
    "5009": "on's ",
    "5010": "clear",
    "5011": "To",
    "5012": "marri",
    "5013": "cours",
    "5014": "safet",
    "5015": "Tor",
    "5016": "Nav",
    "5017": "protect ",
    "5018": "tig",
    "5019": "inch",
    "5020": "ird",
    "5021": "children",
    "5022": "diverse ",
    "5023": "DC",
    "5024": "lak",
    "5025": "reasons ",
    "5026": "all time",
    "5027": "ed.  ",
    "5028": "cycl",
    "5029": ": L",
    "5030": "uals ",
    "5031": "whether these are ",
    "5032": "ate them with a comm",
    "5033": "Robert ",
    "5034": "cular ",
    "5035": "hur",
    "5036": "environment",
    "5037": ": M",
    "5038": "return ",
    "5039": "Cel",
    "5040": "Bang",
    "5041": "1-",
    "5042": "improv",
    "5043": "to your ",
    "5044": "equipment ",
    "5045": "hand, ",
    "5046": "fra",
    "5047": "sli",
    "5048": "beginning ",
    "5049": "influence ",
    "5050": "outsid",
    "5051": "discus",
    "5052": "have",
    "5053": "th-",
    "5054": "it the ",
    "5055": "Academ",
    "5056": "tabl",
    "5057": "who is ",
    "5058": "siv",
    "5059": "core ",
    "5060": "enabl",
    "5061": "dry ",
    "5062": "maintain ",
    "5063": "business",
    "5064": "sent",
    "5065": "block",
    "5066": "check",
    "5067": "datab",
    "5068": "roy",
    "5069": "we can ",
    "5070": "Val",
    "5071": "facil",
    "5072": "critic",
    "5073": "in order to ",
    "5074": "consump",
    "5075": "butter ",
    "5076": "?\nAlmond: D",
    "5077": "cricket",
    "5078": "most famous ",
    "5079": "office ",
    "5080": "outdoor ",
    "5081": "tournament ",
    "5082": "element",
    "5083": "belong ",
    "5084": "addition",
    "5085": "di ",
    "5086": "ino ",
    "5087": "week ",
    "5088": "Green ",
    "5089": "World",
    "5090": "received ",
    "5091": "suff",
    "5092": "18 ",
    "5093": "Blue ",
    "5094": "boat ",
    "5095": "Greek ",
    "5096": "airplan",
    "5097": "y for ",
    "5098": "fore",
    "5099": "s. He ",
    "5100": "amb",
    "5101": "High ",
    "5102": "see",
    "5103": ".\n\nUser: What is the best ",
    "5104": "ag ",
    "5105": "rob",
    "5106": "sem",
    "5107": "ive, ",
    "5108": "computer",
    "5109": "a long ",
    "5110": "Bul",
    "5111": "you\u00e2\u0080\u0099",
    "5112": "atory ",
    "5113": "deep ",
    "5114": ".\n\nUser: Given a reference text about ",
    "5115": "customer ",
    "5116": "material",
    "5117": "ocal ",
    "5118": "eating ",
    "5119": "\nAlmond: - ",
    "5120": "ain the ",
    "5121": "tail",
    "5122": "0.",
    "5123": "uch",
    "5124": "id, ",
    "5125": "Championship",
    "5126": "industri",
    "5127": "Comm",
    "5128": "ris ",
    "5129": "Hor",
    "5130": "Muse",
    "5131": "pattern",
    "5132": "yd",
    "5133": "Tit",
    "5134": "ac ",
    "5135": "virt",
    "5136": "material ",
    "5137": "Kar",
    "5138": "21",
    "5139": "to-",
    "5140": "ato ",
    "5141": "\n\nUser: Name ",
    "5142": "Alexand",
    "5143": "lots of ",
    "5144": "van",
    "5145": "sus",
    "5146": "ers of the ",
    "5147": "driver",
    "5148": "access ",
    "5149": "ive or ",
    "5150": "ations and ",
    "5151": "proper ",
    "5152": "relationship ",
    "5153": ". On ",
    "5154": "with an ",
    "5155": "platform",
    "5156": "driving ",
    "5157": "is a great ",
    "5158": "ize the ",
    "5159": "22",
    "5160": ". They are ",
    "5161": "my",
    "5162": "data",
    "5163": "wond",
    "5164": "competition ",
    "5165": "novel",
    "5166": "gradu",
    "5167": "before the ",
    "5168": "excell",
    "5169": "degrees ",
    "5170": "you may ",
    "5171": "prep",
    "5172": "oyot",
    "5173": "ated by ",
    "5174": "ass, ",
    "5175": "\n7",
    "5176": "release ",
    "5177": "names of ",
    "5178": "agn",
    "5179": "festiv",
    "5180": "gas",
    "5181": "shot",
    "5182": "i-",
    "5183": "bably ",
    "5184": "Nam",
    "5185": "s at ",
    "5186": "objects ",
    "5187": "decision ",
    "5188": "London ",
    "5189": "dark ",
    "5190": "mean ",
    "5191": "vary ",
    "5192": "breed",
    "5193": "sible",
    "5194": "fruit ",
    "5195": "Hen",
    "5196": ". Many ",
    "5197": "University ",
    "5198": "1970",
    "5199": "ations of ",
    "5200": "wind ",
    "5201": "against the ",
    "5202": "clean",
    "5203": "individual",
    "5204": "government",
    "5205": "include the ",
    "5206": "e (",
    "5207": "Bi",
    "5208": "this is ",
    "5209": "capital of ",
    "5210": "Appl",
    "5211": "repe",
    "5212": "driv",
    "5213": "site ",
    "5214": "places ",
    "5215": "Ut",
    "5216": "est, ",
    "5217": "DC ",
    "5218": "ment of ",
    "5219": "lose ",
    "5220": "related ",
    "5221": "prefer ",
    "5222": "sigh",
    "5223": "flow ",
    "5224": "flavor",
    "5225": "population of ",
    "5226": "Anim",
    "5227": "employe",
    "5228": "s\" ",
    "5229": "whose ",
    "5230": "och",
    "5231": "ival",
    "5232": "ady ",
    "5233": "ultim",
    "5234": ". He was ",
    "5235": "e, a ",
    "5236": "civil ",
    "5237": "civil",
    "5238": "of the United Stat",
    "5239": ". An ",
    "5240": "a sec",
    "5241": "abor",
    "5242": "Germany ",
    "5243": "animal species ",
    "5244": "cooking ",
    "5245": "heat",
    "5246": "culture ",
    "5247": "provided ",
    "5248": "zen",
    "5249": "they can ",
    "5250": "Joe ",
    "5251": "yard",
    "5252": "this",
    "5253": "ality ",
    "5254": "esty",
    "5255": "larger ",
    "5256": "controll",
    "5257": "ers in ",
    "5258": "river ",
    "5259": "?\nAlmond: G",
    "5260": "Real ",
    "5261": "historical ",
    "5262": "Mah",
    "5263": "Tig",
    "5264": "biggest ",
    "5265": "hood ",
    "5266": "stain",
    "5267": "part ",
    "5268": ".\n\nUser: Who is the ",
    "5269": "vacc",
    "5270": "% of the ",
    "5271": "email ",
    "5272": "ulp",
    "5273": "Famous ",
    "5274": "\n\nUser: When ",
    "5275": "adel",
    "5276": "ing in the ",
    "5277": "remov",
    "5278": "most important ",
    "5279": "s, including ",
    "5280": "through a ",
    "5281": "complex",
    "5282": "s can be ",
    "5283": "called the ",
    "5284": "deriv",
    "5285": "platform ",
    "5286": "cool",
    "5287": "500 ",
    "5288": "wear ",
    "5289": "or \"",
    "5290": "hug",
    "5291": "meet ",
    "5292": "s, a ",
    "5293": "animal species is al",
    "5294": "animal species is alive or ",
    "5295": "animal species is alive or extinct",
    "5296": "nearly ",
    "5297": "ed or ",
    "5298": "addition ",
    "5299": "effectiv",
    "5300": ",000",
    "5301": "Although ",
    "5302": "Young",
    "5303": "ry",
    "5304": "starts ",
    "5305": "fact ",
    "5306": "people to ",
    "5307": "student",
    "5308": "Mountain",
    "5309": "dom ",
    "5310": "match ",
    "5311": "s which ",
    "5312": "receive ",
    "5313": "land, ",
    "5314": "Bab",
    "5315": "ief ",
    "5316": "series of ",
    "5317": "using the ",
    "5318": "Wind",
    "5319": "Off",
    "5320": "-- ",
    "5321": "Japan ",
    "5322": "schedul",
    "5323": "phas",
    "5324": "itself ",
    "5325": "gain ",
    "5326": "sym",
    "5327": "nav",
    "5328": "pressure ",
    "5329": "muscle ",
    "5330": "hour ",
    "5331": "Are",
    "5332": "electronic ",
    "5333": "production ",
    "5334": "Christi",
    "5335": "probably ",
    "5336": "format.\nAlmond: ",
    "5337": "es.\nAlmond: ",
    "5338": "goes ",
    "5339": "limit",
    "5340": "es have ",
    "5341": "Up",
    "5342": "characteristic",
    "5343": "end of ",
    "5344": "ae",
    "5345": "I could ",
    "5346": "excit",
    "5347": "e?\nAlmond: The ",
    "5348": "Kh",
    "5349": "FI",
    "5350": "phr",
    "5351": "state",
    "5352": "decad",
    "5353": "true ",
    "5354": "s.  The ",
    "5355": "er\nAlmond: ",
    "5356": "ely, ",
    "5357": "here ",
    "5358": "credit ",
    "5359": "age and ",
    "5360": "que ",
    "5361": "ki",
    "5362": "as you ",
    "5363": "quick ",
    "5364": "at and ",
    "5365": "carri",
    "5366": "Each ",
    "5367": "lic",
    "5368": "of the R",
    "5369": "Make ",
    "5370": "constit",
    "5371": "quite ",
    "5372": "released in ",
    "5373": "ports ",
    "5374": "carry ",
    "5375": "elev",
    "5376": "aries ",
    "5377": "Hol",
    "5378": "Tri",
    "5379": "y in ",
    "5380": "Delt",
    "5381": ".\n\nUser: Extract ",
    "5382": "stock",
    "5383": "group of ",
    "5384": "Spanish ",
    "5385": "sych",
    "5386": "pool",
    "5387": "family",
    "5388": "(199",
    "5389": "volum",
    "5390": "2,",
    "5391": ". Con",
    "5392": "accomplish",
    "5393": "Queen ",
    "5394": "La",
    "5395": "sculp",
    "5396": "hap",
    "5397": "France ",
    "5398": "clus",
    "5399": "movement ",
    "5400": "4.",
    "5401": ".\n\nUser: Write a ",
    "5402": "along with ",
    "5403": "using a ",
    "5404": "gro",
    "5405": "accur",
    "5406": "adap",
    "5407": "championship ",
    "5408": "shoo",
    "5409": "speci",
    "5410": "broad",
    "5411": "combination of ",
    "5412": "a B",
    "5413": "Princ",
    "5414": "angle ",
    "5415": "cross",
    "5416": "er?\nAlmond: ",
    "5417": "bac",
    "5418": "narr",
    "5419": "brain ",
    "5420": "Jack ",
    "5421": "City, ",
    "5422": "Jes",
    "5423": "Northern ",
    "5424": "coast",
    "5425": "carbon ",
    "5426": "Associ",
    "5427": "Switzer",
    "5428": "Award ",
    "5429": "School ",
    "5430": "hi ",
    "5431": "mut",
    "5432": "star ",
    "5433": "flex",
    "5434": "maxim",
    "5435": "25 ",
    "5436": "warm",
    "5437": "tip",
    "5438": "boil",
    "5439": "cum",
    "5440": "physic",
    "5441": "planning ",
    "5442": "s.\n\nUser: What ",
    "5443": "s about ",
    "5444": "Colum",
    "5445": "result",
    "5446": "content ",
    "5447": "report",
    "5448": "talk ",
    "5449": "iPhone ",
    "5450": "was found",
    "5451": "burg",
    "5452": "ford",
    "5453": "nuclear ",
    "5454": "| Fin",
    "5455": "| Finals: ",
    "5456": "Rock",
    "5457": "bad ",
    "5458": "he is ",
    "5459": "election ",
    "5460": "fif",
    "5461": "Hal",
    "5462": "bour",
    "5463": "wheel",
    "5464": "that",
    "5465": "relationship",
    "5466": "pet ",
    "5467": ": F",
    "5468": "protein",
    "5469": "ru",
    "5470": "rely ",
    "5471": "mal",
    "5472": "Jun",
    "5473": "orto",
    "5474": "ingu",
    "5475": "neutr",
    "5476": "slow",
    "5477": "contains ",
    "5478": "Luc",
    "5479": "gri",
    "5480": "while the ",
    "5481": "hours ",
    "5482": "dough ",
    "5483": ", so ",
    "5484": "make it ",
    "5485": "movement",
    "5486": "Premier ",
    "5487": "tree ",
    "5488": "pati",
    "5489": "tics ",
    "5490": "names of the ",
    "5491": ". Separ",
    "5492": "Black",
    "5493": "uff",
    "5494": ": B",
    "5495": "Mach",
    "5496": "launch",
    "5497": "PS",
    "5498": "billion ",
    "5499": "advantag",
    "5500": "negative ",
    "5501": "Spr",
    "5502": "Frank",
    "5503": "At ",
    "5504": "07",
    "5505": "assach",
    "5506": "assachus",
    "5507": "Net",
    "5508": ":\n\n- ",
    "5509": "ight, ",
    "5510": "today ",
    "5511": "onn",
    "5512": "Color",
    "5513": "Y ",
    "5514": "ether",
    "5515": "ory",
    "5516": "gold",
    "5517": "verb",
    "5518": "a sum",
    "5519": "did not ",
    "5520": "was",
    "5521": "incor",
    "5522": "1. ",
    "5523": "2000",
    "5524": "egg ",
    "5525": "\n\nUser: Is ",
    "5526": "purpose ",
    "5527": "Tom ",
    "5528": "2018",
    "5529": "rad",
    "5530": "that can be ",
    "5531": "relax",
    "5532": "bed",
    "5533": "conver",
    "5534": "fat",
    "5535": "path",
    "5536": "restric",
    "5537": "s\"",
    "5538": "encour",
    "5539": "effects ",
    "5540": "espite ",
    "5541": "phere ",
    "5542": "e.g. ",
    "5543": "hit",
    "5544": "vehicle ",
    "5545": "poll",
    "5546": "flight ",
    "5547": "ate and ",
    "5548": "NFL ",
    "5549": "there are many ",
    "5550": "an\n",
    "5551": "along the ",
    "5552": ".\n\nUser: How do you ",
    "5553": "ated, ",
    "5554": "ess, ",
    "5555": "developed ",
    "5556": "causes ",
    "5557": "du",
    "5558": "\n\nUser: How many ",
    "5559": "advent",
    "5560": "Mountain ",
    "5561": "chicken ",
    "5562": "diet ",
    "5563": "Yell",
    "5564": "olf",
    "5565": "e\"",
    "5566": "co-",
    "5567": "Of ",
    "5568": ", E",
    "5569": "mobile ",
    "5570": "produced ",
    "5571": "Thomas ",
    "5572": "man, ",
    "5573": "Philadel",
    "5574": "Philadelph",
    "5575": "presidential ",
    "5576": "tradition",
    "5577": "ous and ",
    "5578": "the results ",
    "5579": "injur",
    "5580": "purchase ",
    "5581": "progres",
    "5582": "community ",
    "5583": "can't ",
    "5584": "lip",
    "5585": "32",
    "5586": "possible",
    "5587": "ence and ",
    "5588": "AM",
    "5589": "ers, and ",
    "5590": "see the ",
    "5591": "in D",
    "5592": "ette ",
    "5593": "morning ",
    "5594": ", The ",
    "5595": "ordin",
    "5596": "impact",
    "5597": "will help ",
    "5598": "Pi",
    "5599": "pip",
    "5600": "kitch",
    "5601": "that can ",
    "5602": "project",
    "5603": "fire ",
    "5604": "hu",
    "5605": "quer",
    "5606": "ore, ",
    "5607": "alcohol",
    "5608": "created by ",
    "5609": "ic and ",
    "5610": "United Kingdom",
    "5611": "legal ",
    "5612": "eter",
    "5613": ": S",
    "5614": "s\n\nUser: ",
    "5615": "sugar ",
    "5616": "usiness ",
    "5617": "distric",
    "5618": "G ",
    "5619": "3) ",
    "5620": "print",
    "5621": "Tu",
    "5622": "haw",
    "5623": "in L",
    "5624": "Roman ",
    "5625": "Union ",
    "5626": "access to ",
    "5627": "pepper",
    "5628": "symp",
    "5629": "Dieg",
    "5630": "location ",
    "5631": "annual ",
    "5632": "transform",
    "5633": ". With ",
    "5634": "ing. The ",
    "5635": "when he ",
    "5636": "away",
    "5637": ". What ",
    "5638": "mostly ",
    "5639": "ations. ",
    "5640": "es\nAlmond: ",
    "5641": "there is no ",
    "5642": "brown ",
    "5643": "apart",
    "5644": "stand ",
    "5645": "\n\nUser: Identify which instrument is string or percussion: ",
    "5646": "wif",
    "5647": "ities",
    "5648": "Summar",
    "5649": "measure ",
    "5650": "it has ",
    "5651": "Aust",
    "5652": "butter",
    "5653": "River",
    "5654": "weap",
    "5655": "it is a ",
    "5656": "is often ",
    "5657": "please ",
    "5658": "creative ",
    "5659": "towards ",
    "5660": "School",
    "5661": "(S",
    "5662": "river",
    "5663": "Gener",
    "5664": "Sov",
    "5665": "Cur",
    "5666": "ancient ",
    "5667": "demand ",
    "5668": "ia and ",
    "5669": "His ",
    "5670": "is and ",
    "5671": "titles ",
    "5672": "risk",
    "5673": "that was ",
    "5674": "project ",
    "5675": "ino",
    "5676": "bey",
    "5677": "fel",
    "5678": "s. A ",
    "5679": "subst",
    "5680": "find",
    "5681": "istic ",
    "5682": "generate ",
    "5683": "giving ",
    "5684": "stra",
    "5685": "to keep ",
    "5686": "become a ",
    "5687": "Hous",
    "5688": "innov",
    "5689": "in his ",
    "5690": "Bor",
    "5691": "car, ",
    "5692": "prime ",
    "5693": "brok",
    "5694": "ium ",
    "5695": ": D",
    "5696": "target ",
    "5697": "-based ",
    "5698": "e. S",
    "5699": "life, ",
    "5700": "dog, ",
    "5701": "relatively ",
    "5702": "however ",
    "5703": "er the ",
    "5704": "class ",
    "5705": "there is a ",
    "5706": "rich ",
    "5707": "as of ",
    "5708": "convers",
    "5709": "e. \n\n",
    "5710": "can also be ",
    "5711": "Hist",
    "5712": "ed from the ",
    "5713": ".   ",
    "5714": "ins, ",
    "5715": "leagu",
    "5716": "dedic",
    "5717": "events ",
    "5718": "car manufactur",
    "5719": "\n\nUser: Classify each of the following ",
    "5720": "arian ",
    "5721": "ability",
    "5722": "ado ",
    "5723": "\n\nUser: Extract the ",
    "5724": "Pop",
    "5725": "push",
    "5726": "ones ",
    "5727": "ao ",
    "5728": "Bro",
    "5729": "60 ",
    "5730": "election",
    "5731": "athlet",
    "5732": "birth",
    "5733": "rise ",
    "5734": "son's ",
    "5735": "elect",
    "5736": "re-",
    "5737": "implement",
    "5738": "chain ",
    "5739": "Ret",
    "5740": "eir ",
    "5741": "propos",
    "5742": "you'll ",
    "5743": ", which is ",
    "5744": "related to ",
    "5745": "this paragraph, ",
    "5746": "intern",
    "5747": "considered to be ",
    "5748": "object ",
    "5749": "component",
    "5750": "Canadi",
    "5751": "anta ",
    "5752": "} - ",
    "5753": "} - {",
    "5754": "town",
    "5755": "need to be ",
    "5756": "don\u00e2\u0080\u0099t ",
    "5757": "wild",
    "5758": "bat",
    "5759": "save ",
    "5760": "., ",
    "5761": "outside ",
    "5762": "will",
    "5763": "money",
    "5764": "First, ",
    "5765": "Data ",
    "5766": ".\n\nUser: Give me a list of the ",
    "5767": "live in ",
    "5768": "in T",
    "5769": "ster ",
    "5770": "refers ",
    "5771": "migr",
    "5772": "gan",
    "5773": "people who ",
    "5774": "by",
    "5775": "medic",
    "5776": "modi",
    "5777": "students ",
    "5778": "Gar",
    "5779": "anything ",
    "5780": "categoriz",
    "5781": "for an ",
    "5782": "ed at the ",
    "5783": "stag",
    "5784": "188",
    "5785": "motiv",
    "5786": ",\" ",
    "5787": "ombi",
    "5788": "any other ",
    "5789": "upp",
    "5790": "Seg",
    "5791": "Gen: ",
    "5792": "K)] ",
    "5793": "574",
    "5794": "57435",
    "5795": "Virgin",
    "5796": "together",
    "5797": "uti",
    "5798": "knowledge ",
    "5799": "Song of ",
    "5800": "founder of ",
    "5801": "appear ",
    "5802": "tap",
    "5803": ", with ",
    "5804": "multi-",
    "5805": "review",
    "5806": "ory, ",
    "5807": "artic",
    "5808": "Brid",
    "5809": ".  They ",
    "5810": "get to ",
    "5811": "entially ",
    "5812": "program ",
    "5813": "y the ",
    "5814": "aint ",
    "5815": "option ",
    "5816": "ney",
    "5817": "pizza ",
    "5818": "Australia, ",
    "5819": "try, ",
    "5820": "recommend ",
    "5821": "tournament",
    "5822": "water and ",
    "5823": "ana",
    "5824": "appropriate ",
    "5825": "ity of the ",
    "5826": "compris",
    "5827": "individuals ",
    "5828": "restaurants ",
    "5829": "ance",
    "5830": "Amazon ",
    "5831": "on their ",
    "5832": "sandw",
    "5833": "ob ",
    "5834": "Super B",
    "5835": "77",
    "5836": "of all time",
    "5837": "Roy",
    "5838": "Rog",
    "5839": "spoken ",
    "5840": ".  Th",
    "5841": "ache ",
    "5842": ": [",
    "5843": "ings and ",
    "5844": "freed",
    "5845": "right",
    "5846": "urch",
    "5847": "area",
    "5848": "led to ",
    "5849": "OS",
    "5850": "(or ",
    "5851": "shop",
    "5852": "brew",
    "5853": "history of ",
    "5854": "years ag",
    "5855": "BC",
    "5856": "sun ",
    "5857": "normal ",
    "5858": "it of ",
    "5859": "Cas",
    "5860": "difficult to ",
    "5861": "fastest ",
    "5862": "few",
    "5863": "located in the ",
    "5864": "everything ",
    "5865": "Jerse",
    "5866": "ified ",
    "5867": "mid-",
    "5868": "pre-",
    "5869": "oust",
    "5870": "whit",
    "5871": "\n2. ",
    "5872": "\n\nUser: List ",
    "5873": "written by ",
    "5874": "s of a ",
    "5875": "500",
    "5876": "a short ",
    "5877": "ake, ",
    "5878": "size ",
    "5879": "Nep",
    "5880": "pean",
    "5881": "is the largest ",
    "5882": "yet ",
    "5883": "hard to ",
    "5884": "Other ",
    "5885": "o's ",
    "5886": "easy ",
    "5887": "track",
    "5888": "ing an ",
    "5889": "ate them with a comma.\nAlmond: ",
    "5890": "percent",
    "5891": "unk",
    "5892": "Oreg",
    "5893": "dogs ",
    "5894": "al\n",
    "5895": "Because ",
    "5896": "bol",
    "5897": "ated in ",
    "5898": "when they ",
    "5899": "c ",
    "5900": "\u00c3\u00b3",
    "5901": "level of ",
    "5902": "enjoy the ",
    "5903": ". So ",
    "5904": "ina, ",
    "5905": "insul",
    "5906": "Swed",
    "5907": "Sim",
    "5908": "Terri",
    "5909": "pursu",
    "5910": "cipl",
    "5911": "influenc",
    "5912": ".  A ",
    "5913": "5.",
    "5914": "Ice and ",
    "5915": "speed",
    "5916": "slow ",
    "5917": "yellow ",
    "5918": "es is ",
    "5919": "geograph",
    "5920": "ors, ",
    "5921": "contribu",
    "5922": "a number of ",
    "5923": "each of these ",
    "5924": "existing ",
    "5925": "berri",
    "5926": "for their ",
    "5927": "series",
    "5928": "sam",
    "5929": "to create ",
    "5930": "fing",
    "5931": "musici",
    "5932": "father ",
    "5933": "up and ",
    "5934": "foot ",
    "5935": "explore ",
    "5936": "eight ",
    "5937": "thousand",
    "5938": "Div",
    "5939": "concern",
    "5940": "rough",
    "5941": "efficient ",
    "5942": "scale ",
    "5943": "brought ",
    "5944": "Az",
    "5945": "Canada, ",
    "5946": "GP",
    "5947": "wise ",
    "5948": "of his ",
    "5949": "stay",
    "5950": "pool ",
    "5951": "academ",
    "5952": "memory ",
    "5953": "nei",
    "5954": "m, ",
    "5955": "th century ",
    "5956": "smar",
    "5957": "plent",
    "5958": "men ",
    "5959": "thus ",
    "5960": "Ram",
    "5961": "cloth",
    "5962": "marath",
    "5963": "8.",
    "5964": "\n- S",
    "5965": "int ",
    "5966": "reci",
    "5967": "island ",
    "5968": "following are ",
    "5969": "snow ",
    "5970": "| MVP",
    "5971": "N ",
    "5972": "bread",
    "5973": "on B",
    "5974": "Im",
    "5975": "?\nAlmond: There are many ",
    "5976": "Olympic ",
    "5977": "perspec",
    "5978": "writing ",
    "5979": "Yes, ",
    "5980": "previous ",
    "5981": "No ",
    "5982": "amazing ",
    "5983": "decide ",
    "5984": "cats ",
    "5985": "Song of Ice and ",
    "5986": "?\nAlmond: C",
    "5987": "object",
    "5988": "Me",
    "5989": "depending on ",
    "5990": "ance and ",
    "5991": "es on ",
    "5992": "imin",
    "5993": ".\n\nUser: Which of these ",
    "5994": "Basket",
    "5995": "a bulleted list of the ",
    "5996": "a was ",
    "5997": ". Most ",
    "5998": "olly",
    "5999": "increased ",
    "6000": "ring ",
    "6001": "places to ",
    "6002": "Here are some ",
    "6003": "focus on ",
    "6004": "people are ",
    "6005": "sure",
    "6006": "Marvel ",
    "6007": "future",
    "6008": "becomes ",
    "6009": "black",
    "6010": "books ",
    "6011": "torto",
    "6012": "glass ",
    "6013": "Rem",
    "6014": "ps",
    "6015": "Disney ",
    "6016": "gram",
    "6017": "\u00cb\u0088",
    "6018": "women ",
    "6019": "kilomet",
    "6020": "having a ",
    "6021": "Rh",
    "6022": ".\u00e2\u0080\u009d",
    "6023": "phen ",
    "6024": "wis",
    "6025": "property ",
    "6026": "Ford ",
    "6027": "Democratic ",
    "6028": "Harv",
    "6029": "dram",
    "6030": "lie ",
    "6031": "population",
    "6032": "bread ",
    "6033": "administr",
    "6034": "DNA ",
    "6035": "comma separated format.\nAlmond: ",
    "6036": "cool ",
    "6037": "Dutch ",
    "6038": "artist ",
    "6039": "libr",
    "6040": "a lot ",
    "6041": "2023 ",
    "6042": "spent ",
    "6043": "completely ",
    "6044": "Engine",
    "6045": ":  ",
    "6046": "atistic",
    "6047": "Vic",
    "6048": "OS ",
    "6049": "research",
    "6050": "chair",
    "6051": "format {",
    "6052": "product",
    "6053": "edy ",
    "6054": "?\nAlmond: Th",
    "6055": ". It is a ",
    "6056": "effect",
    "6057": "2021 ",
    "6058": "SQ",
    "6059": "Cricket ",
    "6060": "toc",
    "6061": "each other ",
    "6062": "F ",
    "6063": "ran",
    "6064": "depres",
    "6065": "away from ",
    "6066": "essi",
    "6067": "cryp",
    "6068": "assive ",
    "6069": "men's ",
    "6070": "etary ",
    "6071": "hob",
    "6072": "Nob",
    "6073": "one is ",
    "6074": "grand ",
    "6075": "in 196",
    "6076": "because the ",
    "6077": "leball ",
    "6078": "ka ",
    "6079": "ibil",
    "6080": "Maj",
    "6081": "ts are ",
    "6082": "ies. ",
    "6083": "prepare ",
    "6084": "Pho",
    "6085": "less than ",
    "6086": "ession ",
    "6087": "1/",
    "6088": "moon",
    "6089": "Hun",
    "6090": "Civil ",
    "6091": "but the ",
    "6092": "grocer",
    "6093": "\n\nUser: Who is ",
    "6094": "key, ",
    "6095": "death",
    "6096": "odd",
    "6097": "shad",
    "6098": "Year",
    "6099": "ent of ",
    "6100": "Lou",
    "6101": "colors ",
    "6102": "ing of the ",
    "6103": "apple ",
    "6104": "development",
    "6105": "cultural ",
    "6106": "African ",
    "6107": "incredi",
    "6108": "osaur",
    "6109": "A Song of Ice and ",
    "6110": "icial ",
    "6111": "aspects ",
    "6112": "acid",
    "6113": "beaut",
    "6114": "soon ",
    "6115": "win the ",
    "6116": "bullet",
    "6117": "counter",
    "6118": "load",
    "6119": "friendly ",
    "6120": "a or ",
    "6121": "ele",
    "6122": "Latin ",
    "6123": "gif",
    "6124": "22 ",
    "6125": "if you are ",
    "6126": "target",
    "6127": ". Since ",
    "6128": "Swiss ",
    "6129": "ert",
    "6130": "rub",
    "6131": "Nad",
    "6132": "Publ",
    "6133": "General ",
    "6134": "ence. ",
    "6135": "Oper",
    "6136": "ma ",
    "6137": "an in",
    "6138": "minute ",
    "6139": "flat ",
    "6140": "ague",
    "6141": "may",
    "6142": "competition",
    "6143": ". Ex",
    "6144": "such as the ",
    "6145": "I\u00e2\u0080\u0099",
    "6146": "Sur",
    "6147": "a - ",
    "6148": "tac",
    "6149": "96",
    "6150": "pop ",
    "6151": "ony ",
    "6152": "commit",
    "6153": "apol",
    "6154": "deal",
    "6155": "----",
    "6156": "friends ",
    "6157": "France, ",
    "6158": "foreign ",
    "6159": "div",
    "6160": "og ",
    "6161": "institution",
    "6162": "200 ",
    "6163": "video",
    "6164": "reading ",
    "6165": "ief",
    "6166": "d and ",
    "6167": "Por",
    "6168": "example of ",
    "6169": "Beat",
    "6170": "Smi",
    "6171": "interesting ",
    "6172": "alph",
    "6173": "spic",
    "6174": "itation ",
    "6175": "then",
    "6176": "player",
    "6177": "). The ",
    "6178": "exten",
    "6179": "native ",
    "6180": "animal species is alive or extinct: ",
    "6181": "out, ",
    "6182": "aware ",
    "6183": "Den",
    "6184": "oll ",
    "6185": "Championship ",
    "6186": "a cou",
    "6187": "tend to ",
    "6188": "fo",
    "6189": "upon ",
    "6190": "of their ",
    "6191": "ent to ",
    "6192": "no longer ",
    "6193": "rhy",
    "6194": "Southern ",
    "6195": "pass ",
    "6196": "vacation ",
    "6197": "ater ",
    "6198": "wrote ",
    "6199": "user ",
    "6200": "2020 ",
    "6201": "thinking ",
    "6202": "Every",
    "6203": "IC",
    "6204": "'re ",
    "6205": "feed",
    "6206": "es that are ",
    "6207": "benefits ",
    "6208": "would you ",
    "6209": "allowing ",
    "6210": "assum",
    "6211": "Soviet ",
    "6212": "creates ",
    "6213": "mas",
    "6214": "ald",
    "6215": "Instit",
    "6216": "al-",
    "6217": "Johnson ",
    "6218": "means that ",
    "6219": "wall ",
    "6220": "coach",
    "6221": "time of ",
    "6222": "genre",
    "6223": "Aut",
    "6224": "overn",
    "6225": "alist ",
    "6226": "According to ",
    "6227": "edg",
    "6228": "artificial ",
    "6229": "Spark ",
    "6230": "changes ",
    "6231": "argu",
    "6232": "stick",
    "6233": "deep",
    "6234": "Cany",
    "6235": "powerful ",
    "6236": "rati",
    "6237": "front ",
    "6238": "ingredients ",
    "6239": "possible to ",
    "6240": "resol",
    "6241": "elimin",
    "6242": "Sam",
    "6243": ".\n\nUser: Please ",
    "6244": "tall",
    "6245": "Go ",
    "6246": "nd ",
    "6247": "atom",
    "6248": "as either a ",
    "6249": "the p",
    "6250": "asset",
    "6251": "extra ",
    "6252": "frequently ",
    "6253": "social media ",
    "6254": ".\n\nUser: What's ",
    "6255": "the bel",
    "6256": "to take ",
    "6257": "northern ",
    "6258": "hemis",
    "6259": "teen",
    "6260": "2010",
    "6261": "award ",
    "6262": "ingly ",
    "6263": "If you are ",
    "6264": "): ",
    "6265": "Fall",
    "6266": "jump",
    "6267": ", N",
    "6268": "oid",
    "6269": "August",
    "6270": "70",
    "6271": "runs ",
    "6272": "val ",
    "6273": "choice ",
    "6274": "mort",
    "6275": "\n3. ",
    "6276": "earth ",
    "6277": "CP",
    "6278": "symptom",
    "6279": "passage, ",
    "6280": "United States, ",
    "6281": "firm",
    "6282": "electricity ",
    "6283": "Nintendo ",
    "6284": "90 ",
    "6285": "discipl",
    "6286": "poly",
    "6287": "aim",
    "6288": "transportation ",
    "6289": "Microsoft ",
    "6290": "damage ",
    "6291": "I've ",
    "6292": "one. ",
    "6293": "A Song of Ice and Fire",
    "6294": "more, ",
    "6295": "milk",
    "6296": "topp",
    "6297": "officially ",
    "6298": "\nAlmond: M",
    "6299": "mast",
    "6300": "older ",
    "6301": "technical ",
    "6302": "judg",
    "6303": "ni",
    "6304": "West",
    "6305": ". If the ",
    "6306": "is of ",
    "6307": "in the United States ",
    "6308": "era ",
    "6309": "Mexico",
    "6310": ", and a ",
    "6311": "glass",
    "6312": "museum",
    "6313": "ena ",
    "6314": "themselv",
    "6315": "boy",
    "6316": "40 ",
    "6317": "hair",
    "6318": ". Each ",
    "6319": "that has ",
    "6320": "Marvel",
    "6321": "s/",
    "6322": "a little ",
    "6323": ". Then ",
    "6324": "rates ",
    "6325": ". Its ",
    "6326": "Stat",
    "6327": "minist",
    "6328": "advanced ",
    "6329": "UE",
    "6330": "resorts ",
    "6331": "is one of the ",
    "6332": "rack",
    "6333": "princi",
    "6334": "Singapore ",
    "6335": "garden",
    "6336": "\nAlmond: H",
    "6337": "referred to as ",
    "6338": "brand ",
    "6339": "Tour",
    "6340": "can you ",
    "6341": "ather, ",
    "6342": "expand",
    "6343": "farm",
    "6344": "responsible for ",
    "6345": "cream",
    "6346": "they",
    "6347": "suffici",
    "6348": "iring ",
    "6349": "sugar",
    "6350": "paper ",
    "6351": "Capit",
    "6352": "we are ",
    "6353": "lin ",
    "6354": "distanc",
    "6355": "\u00e2\u0080\u0094 ",
    "6356": "or other ",
    "6357": "clo",
    "6358": "ky ",
    "6359": "or more ",
    "6360": "tell",
    "6361": " \n\n",
    "6362": "Roman",
    "6363": "Uk",
    "6364": "asking ",
    "6365": "um of ",
    "6366": "irth",
    "6367": "craft ",
    "6368": "ple of ",
    "6369": "Jeffer",
    "6370": "ency",
    "6371": "settl",
    "6372": "comfortable ",
    "6373": "separate ",
    "6374": "sea ",
    "6375": "The L",
    "6376": "included ",
    "6377": "Vol",
    "6378": "themselves ",
    "6379": "a summar",
    "6380": "cost of ",
    "6381": "fight ",
    "6382": "knowledg",
    "6383": "find the ",
    "6384": "dish ",
    "6385": "owever, the ",
    "6386": "s from the ",
    "6387": "experim",
    "6388": "classical ",
    "6389": "transi",
    "6390": "requirement",
    "6391": "ative",
    "6392": "ata ",
    "6393": "too much ",
    "6394": "aun",
    "6395": "essential ",
    "6396": "attle",
    "6397": "cab",
    "6398": "fill ",
    "6399": "hiking ",
    "6400": "electrical ",
    "6401": "economy ",
    "6402": "Warri",
    "6403": "49",
    "6404": "s? ",
    "6405": "Two ",
    "6406": "lifesty",
    "6407": "Wom",
    "6408": "lack of ",
    "6409": "rim",
    "6410": ", he ",
    "6411": "Arc",
    "6412": "French",
    "6413": "\nAlmond: B",
    "6414": "make the ",
    "6415": "people",
    "6416": "County ",
    "6417": "Sil",
    "6418": "gn",
    "6419": "cock",
    "6420": "remot",
    "6421": "responsibil",
    "6422": "plenty of ",
    "6423": "-term ",
    "6424": ". All ",
    "6425": "solve ",
    "6426": "auc",
    "6427": "ra ",
    "6428": "Tam",
    "6429": "but not ",
    "6430": "breath",
    "6431": "height ",
    "6432": "declar",
    "6433": "unning ",
    "6434": "difficult ",
    "6435": "Manchester ",
    "6436": "17 ",
    "6437": "mir",
    "6438": "arry ",
    "6439": "excep",
    "6440": "host ",
    "6441": "Republic ",
    "6442": "Eliz",
    "6443": "itam",
    "6444": "Valley ",
    "6445": "Greec",
    "6446": "AW",
    "6447": "cell ",
    "6448": "Apache ",
    "6449": "ili",
    "6450": "Tom",
    "6451": "uring the ",
    "6452": "bris",
    "6453": "stret",
    "6454": "Grou",
    "6455": ", G",
    "6456": "with other ",
    "6457": "anyone ",
    "6458": "dream",
    "6459": "tee",
    "6460": "Mark ",
    "6461": "version",
    "6462": "throughout ",
    "6463": "Over",
    "6464": "Does ",
    "6465": "aqu",
    "6466": "Henry ",
    "6467": "dates ",
    "6468": "Descri",
    "6469": "begin ",
    "6470": "?  ",
    "6471": "unc",
    "6472": "zen ",
    "6473": "Categ",
    "6474": "enh",
    "6475": ", J",
    "6476": "ization ",
    "6477": "E ",
    "6478": "ro ",
    "6479": "\n- The ",
    "6480": "ate in ",
    "6481": "Pic",
    "6482": "Satur",
    "6483": "easier to ",
    "6484": "th century",
    "6485": "Persi",
    "6486": "insid",
    "6487": "nature",
    "6488": "engineer",
    "6489": "in my ",
    "6490": "on of ",
    "6491": "Richard ",
    "6492": "is the most ",
    "6493": "longest ",
    "6494": "flic",
    "6495": "ideal ",
    "6496": "2017",
    "6497": "s.\n\nUser: How ",
    "6498": "aught ",
    "6499": "success ",
    "6500": "excellent ",
    "6501": "located",
    "6502": "en to ",
    "6503": "cuis",
    "6504": "lying ",
    "6505": "for you",
    "6506": "voc",
    "6507": "f-",
    "6508": "Golf ",
    "6509": "oxid",
    "6510": "questions ",
    "6511": "female ",
    "6512": "athl",
    "6513": "this paragraph about the ",
    "6514": "Af",
    "6515": "franch",
    "6516": "fuel",
    "6517": "organization",
    "6518": "vs ",
    "6519": "68",
    "6520": "root",
    "6521": "innes",
    "6522": "Austri",
    "6523": "therefore ",
    "6524": "director ",
    "6525": "spin",
    "6526": "Take ",
    "6527": "meat ",
    "6528": "Foll",
    "6529": "charge ",
    "6530": "oul",
    "6531": "Mun",
    "6532": "claim ",
    "6533": "include: ",
    "6534": "plom",
    "6535": "evolution",
    "6536": "System",
    "6537": "philosoph",
    "6538": ".\n\nS",
    "6539": "Lam",
    "6540": "itive ",
    "6541": "ect the ",
    "6542": "mass ",
    "6543": "crimin",
    "6544": "that's ",
    "6545": "mouth ",
    "6546": "s are not ",
    "6547": "ody ",
    "6548": "attach",
    "6549": "Osc",
    "6550": "formul",
    "6551": "aer",
    "6552": "bak",
    "6553": "paid ",
    "6554": "account",
    "6555": "huge ",
    "6556": "lightly ",
    "6557": "Philadelphia ",
    "6558": "stream ",
    "6559": "used by ",
    "6560": "scientist",
    "6561": "?\nAlmond: H",
    "6562": "manage ",
    "6563": "ing\n",
    "6564": "had been ",
    "6565": "wr",
    "6566": "application",
    "6567": "molecul",
    "6568": "Heal",
    "6569": "ale, ",
    "6570": "Old ",
    "6571": "Club",
    "6572": "gives ",
    "6573": "materi",
    "6574": "reserv",
    "6575": "campa",
    "6576": "China, ",
    "6577": "ocean ",
    "6578": "ch of ",
    "6579": "pin",
    "6580": "Univer",
    "6581": "entertain",
    "6582": "depl",
    "6583": "than the ",
    "6584": "Baseball ",
    "6585": "troph",
    "6586": "Jackson ",
    "6587": "ere is no ",
    "6588": "ate a ",
    "6589": "incom",
    "6590": "lake ",
    "6591": "sail",
    "6592": "75",
    "6593": "ender ",
    "6594": "ene",
    "6595": "ho",
    "6596": "24 ",
    "6597": "Harry Potter and the ",
    "6598": "car manufacturer is ",
    "6599": "or American",
    "6600": "corn",
    "6601": "insp",
    "6602": "es like ",
    "6603": "Series ",
    "6604": "34",
    "6605": "get a ",
    "6606": "is very ",
    "6607": "that they ",
    "6608": "Mer",
    "6609": "traff",
    "6610": ".  S",
    "6611": "Kaf",
    "6612": "a are ",
    "6613": "Island ",
    "6614": "but also ",
    "6615": ". He is ",
    "6616": "innesot",
    "6617": "usion ",
    "6618": "remember ",
    "6619": "organism",
    "6620": "abeth ",
    "6621": "notic",
    "6622": ". \"",
    "6623": "disease ",
    "6624": "providing ",
    "6625": "er: ",
    "6626": "bear ",
    "6627": "C (",
    "6628": "IP",
    "6629": "\nFamous ",
    "6630": "does it ",
    "6631": "gave ",
    "6632": "le-",
    "6633": "ultimately ",
    "6634": "Feder",
    "6635": "alu",
    "6636": "fash",
    "6637": "needed to ",
    "6638": "le and ",
    "6639": "reduce the ",
    "6640": "payment ",
    "6641": "ants, ",
    "6642": "oxy",
    "6643": "cars ",
    "6644": "stick ",
    "6645": "dens",
    "6646": "stands for ",
    "6647": "spring ",
    "6648": "special",
    "6649": "ch, ",
    "6650": "capabil",
    "6651": "adver",
    "6652": ". That ",
    "6653": "months ",
    "6654": "China",
    "6655": ", tell me ",
    "6656": "cloud",
    "6657": "Mount ",
    "6658": "born",
    "6659": "Ball",
    "6660": "consul",
    "6661": "remove ",
    "6662": "tool ",
    "6663": "thousands of ",
    "6664": "tific",
    "6665": "ware ",
    "6666": "ield ",
    "6667": "most of the ",
    "6668": "incorpor",
    "6669": ".\n\nUser: Given this ",
    "6670": "followed by ",
    "6671": "independent ",
    "6672": "I should ",
    "6673": "with his ",
    "6674": "bon",
    "6675": "at the same ",
    "6676": "visit the ",
    "6677": "Stan",
    "6678": "Lab",
    "6679": ".\n\nUser: Why do people ",
    "6680": "chron",
    "6681": ". Separate them with a comma.\nAlmond: ",
    "6682": "Phoen",
    "6683": "ered ",
    "6684": "Ann",
    "6685": "mainten",
    "6686": "London",
    "6687": "Chick",
    "6688": "surf",
    "6689": "wast",
    "6690": "leadership ",
    "6691": "top of ",
    "6692": "psych",
    "6693": "piece of ",
    "6694": "therap",
    "6695": "alk",
    "6696": "cred",
    "6697": "ier ",
    "6698": "street ",
    "6699": "orange ",
    "6700": "shel",
    "6701": "ed with the ",
    "6702": "a in ",
    "6703": "greg",
    "6704": "workout ",
    "6705": "\n\nUser: What is the difference between ",
    "6706": "important",
    "6707": "\n\nUser: Why do ",
    "6708": "Europe, ",
    "6709": "Cub",
    "6710": "as well as the ",
    "6711": "coach ",
    "6712": "Germany",
    "6713": "Whit",
    "6714": ".\n\nUser: Which is a species of fish? ",
    "6715": "ice",
    "6716": "alternative ",
    "6717": "made of ",
    "6718": "Gir",
    "6719": "ES",
    "6720": "can be used to ",
    "6721": "Americans ",
    "6722": "ouldn't ",
    "6723": "es were ",
    "6724": "each other",
    "6725": "a person ",
    "6726": "poss",
    "6727": ". There",
    "6728": "sweet ",
    "6729": "grain",
    "6730": "became a ",
    "6731": "effect ",
    "6732": "systems ",
    "6733": "kit",
    "6734": "e?\nAlmond: A ",
    "6735": "around",
    "6736": "live",
    "6737": "merg",
    "6738": "immediately ",
    "6739": "2nd ",
    "6740": "3r",
    "6741": "a C",
    "6742": "Arsen",
    "6743": "increase the ",
    "6744": "hundred",
    "6745": "Hill",
    "6746": "Air ",
    "6747": "simul",
    "6748": "happy ",
    "6749": "Trav",
    "6750": "Typ",
    "6751": "sky ",
    "6752": "bath",
    "6753": "Produc",
    "6754": "install",
    "6755": "rig",
    "6756": "ley",
    "6757": "Atlantic ",
    "6758": "9.",
    "6759": "Organ",
    "6760": "body",
    "6761": "Open ",
    "6762": "Federal ",
    "6763": "38",
    "6764": "s was ",
    "6765": "map",
    "6766": "Bill",
    "6767": "capac",
    "6768": "aho",
    "6769": "to see ",
    "6770": "Houst",
    "6771": "Det",
    "6772": "olph",
    "6773": "aper ",
    "6774": "\u00c2\u00b0",
    "6775": "(the ",
    "6776": "Arm",
    "6777": "words ",
    "6778": "?\nAlmond: It ",
    "6779": "sustain",
    "6780": "Trans",
    "6781": "May",
    "6782": "Washington, ",
    "6783": "ning",
    "6784": "yan",
    "6785": "ichig",
    "6786": "Brit",
    "6787": "that will ",
    "6788": "I think ",
    "6789": "Vietnam",
    "6790": "Ox",
    "6791": "for?\nAlmond: ",
    "6792": "Bill ",
    "6793": "skill ",
    "6794": "where he ",
    "6795": "(A",
    "6796": "COVID-19 ",
    "6797": "estimated ",
    "6798": "according to ",
    "6799": "threat",
    "6800": ". St",
    "6801": "ran ",
    "6802": "s are the ",
    "6803": "API",
    "6804": "s.\n\nUser: What is ",
    "6805": "insurance ",
    "6806": "\u00c3\u00a8",
    "6807": "an-",
    "6808": "southern ",
    "6809": "beyond ",
    "6810": "fav",
    "6811": "es and the ",
    "6812": "antic",
    "6813": "acting ",
    "6814": "ies are ",
    "6815": "push ",
    "6816": "remains ",
    "6817": "Sand",
    "6818": "1960",
    "6819": "New Jerse",
    "6820": "nois",
    "6821": "dynam",
    "6822": "diff",
    "6823": "way, ",
    "6824": "Olympic",
    "6825": "Viol",
    "6826": "list them ",
    "6827": "lap",
    "6828": "vest",
    "6829": "odi",
    "6830": "or not ",
    "6831": "ends ",
    "6832": "Categoriz",
    "6833": "grown ",
    "6834": "genetic ",
    "6835": "descrip",
    "6836": "vehicles ",
    "6837": "internal ",
    "6838": "wick",
    "6839": "Jup",
    "6840": "anch ",
    "6841": "the below ",
    "6842": "role ",
    "6843": "retire",
    "6844": "conflic",
    "6845": "confid",
    "6846": "ield",
    "6847": "snowboard",
    "6848": "belong to ",
    "6849": "Jud",
    "6850": "branch",
    "6851": "Mont",
    "6852": "name",
    "6853": "explain ",
    "6854": "Plan",
    "6855": "Lion",
    "6856": "tial ",
    "6857": "spectr",
    "6858": "fiction ",
    "6859": "announc",
    "6860": "spending ",
    "6861": ".com",
    "6862": "anx",
    "6863": "storage ",
    "6864": "2-",
    "6865": "er who ",
    "6866": "akes",
    "6867": "Asian ",
    "6868": "?\nAlmond: \"",
    "6869": "es can ",
    "6870": "type ",
    "6871": "virtual ",
    "6872": "Malay",
    "6873": "initial ",
    "6874": "ak, ",
    "6875": "moon ",
    "6876": "ley, ",
    "6877": "abet",
    "6878": "particl",
    "6879": "ology",
    "6880": "absor",
    "6881": "NH",
    "6882": "Massachus",
    "6883": "eti",
    "6884": "Colombi",
    "6885": "Congres",
    "6886": "prop",
    "6887": "Govern",
    "6888": "clud",
    "6889": "anz",
    "6890": "rest ",
    "6891": "s when ",
    "6892": "Hur",
    "6893": "ini ",
    "6894": "motor",
    "6895": "woodwind",
    "6896": "i.e. ",
    "6897": "ast, ",
    "6898": "seat",
    "6899": "renew",
    "6900": "whereas ",
    "6901": "god",
    "6902": "one's ",
    "6903": "advantage ",
    "6904": "\nH",
    "6905": "biological ",
    "6906": "\" or \"",
    "6907": "risk of ",
    "6908": "jaz",
    "6909": "classic ",
    "6910": "ed?\nAlmond: The ",
    "6911": "vin",
    "6912": "phrase ",
    "6913": "earch ",
    "6914": "fought ",
    "6915": "game of ",
    "6916": "recently ",
    "6917": "string",
    "6918": "forward",
    "6919": "Coll",
    "6920": "Mov",
    "6921": "fair",
    "6922": "driver ",
    "6923": "two-",
    "6924": "collabor",
    "6925": "double ",
    "6926": "landscap",
    "6927": "desc",
    "6928": "beginn",
    "6929": "stres",
    "6930": "liquid ",
    "6931": "oud ",
    "6932": "Empire ",
    "6933": "specif",
    "6934": "load ",
    "6935": "\n\nUser: What is the best ",
    "6936": "for his ",
    "6937": "scrip",
    "6938": ".\n\nUser: Based on the ",
    "6939": "tt",
    "6940": "Jim",
    "6941": ".\n\nUser: Write ",
    "6942": "organis",
    "6943": "moment",
    "6944": "what are the ",
    "6945": "Spec",
    "6946": "ling",
    "6947": "Finally, ",
    "6948": "investment",
    "6949": "o is ",
    "6950": "later",
    "6951": "United States",
    "6952": "emor",
    "6953": "being the ",
    "6954": "harm",
    "6955": "because they ",
    "6956": "when it ",
    "6957": "refers to ",
    "6958": "Jew",
    "6959": "topic",
    "6960": "fan",
    "6961": "ell, ",
    "6962": "circum",
    "6963": "thiop",
    "6964": "itz",
    "6965": "chess ",
    "6966": "5-",
    "6967": "que",
    "6968": "sod",
    "6969": "universe ",
    "6970": "where you ",
    "6971": "ym ",
    "6972": "grocery ",
    "6973": "acy ",
    "6974": "languages ",
    "6975": "mit ",
    "6976": "fantasy ",
    "6977": "uggl",
    "6978": "explain",
    "6979": "est-",
    "6980": "Cro",
    "6981": "bert ",
    "6982": "resist",
    "6983": "novel ",
    "6984": "feature ",
    "6985": "greater ",
    "6986": "a local ",
    "6987": "mother ",
    "6988": "clust",
    "6989": "trig",
    "6990": "antum ",
    "6991": "covery ",
    "6992": "Five ",
    "6993": "76",
    "6994": "ed in 18",
    "6995": "correspond",
    "6996": "people, ",
    "6997": "surviv",
    "6998": "olar",
    "6999": "is string",
    "7000": "Paul ",
    "7001": "infra",
    "7002": "inary ",
    "7003": ". Fin",
    "7004": "machin",
    "7005": "that it ",
    "7006": "onto ",
    "7007": "embl",
    "7008": "statistic",
    "7009": ". Additionally, ",
    "7010": "extreme ",
    "7011": "idden ",
    "7012": "Bet",
    "7013": "ured ",
    "7014": "Canadian ",
    "7015": "Apple ",
    "7016": "enough to ",
    "7017": "ted to ",
    "7018": "earn ",
    "7019": "Eag",
    "7020": "rough ",
    "7021": "genome ",
    "7022": "previously ",
    "7023": "ont",
    "7024": "William",
    "7025": "cher",
    "7026": "choos",
    "7027": "catch ",
    "7028": "creating ",
    "7029": "ing at ",
    "7030": "Should ",
    "7031": "dangerous ",
    "7032": "itan ",
    "7033": "refer to ",
    "7034": "actual ",
    "7035": "ard, ",
    "7036": "game",
    "7037": "domestic ",
    "7038": "il, ",
    "7039": "for many ",
    "7040": "UEFA ",
    "7041": "us and ",
    "7042": "2014",
    "7043": "initially ",
    "7044": "account ",
    "7045": "princip",
    "7046": "sed ",
    "7047": "ey, ",
    "7048": "Mid",
    "7049": "lad",
    "7050": "escap",
    "7051": ". There ",
    "7052": "salt",
    "7053": "Che",
    "7054": "occas",
    "7055": "National Park",
    "7056": "3,",
    "7057": "Google ",
    "7058": "pron",
    "7059": "s. These ",
    "7060": "rug",
    "7061": "satis",
    "7062": "authen",
    "7063": "metal ",
    "7064": "ed\n",
    "7065": "cycle ",
    "7066": "cru",
    "7067": "97",
    "7068": "aft ",
    "7069": "author ",
    "7070": "ab ",
    "7071": "River ",
    "7072": "Dri",
    "7073": "suffer",
    "7074": "flour",
    "7075": "trick",
    "7076": "Africa, ",
    "7077": "s. Some ",
    "7078": "years old",
    "7079": "New York",
    "7080": "baby ",
    "7081": "Tenn",
    "7082": "dead ",
    "7083": "San Dieg",
    "7084": "es\n- ",
    "7085": "area of ",
    "7086": "explo",
    "7087": "Mel",
    "7088": "video game ",
    "7089": "al, and ",
    "7090": "Minist",
    "7091": "lav",
    "7092": "president",
    "7093": "ped",
    "7094": ". By ",
    "7095": "aran",
    "7096": "espres",
    "7097": "more",
    "7098": "works ",
    "7099": "since the ",
    "7100": "Fur",
    "7101": "was first ",
    "7102": "makes it ",
    "7103": "ector ",
    "7104": "rich",
    "7105": "attern ",
    "7106": "device ",
    "7107": "desired ",
    "7108": "By ",
    "7109": "engineering ",
    "7110": "tail ",
    "7111": "ari ",
    "7112": "48",
    "7113": "This is ",
    "7114": "hair ",
    "7115": "Rel",
    "7116": "advis",
    "7117": "ing it ",
    "7118": "understand the ",
    "7119": "tomato",
    "7120": "database ",
    "7121": "?\nAlmond: While ",
    "7122": "oftware ",
    "7123": "flower",
    "7124": "a d",
    "7125": "flower ",
    "7126": "spot ",
    "7127": "bound",
    "7128": "North",
    "7129": "being a ",
    "7130": "in 198",
    "7131": "month ",
    "7132": "agric",
    "7133": "agricul",
    "7134": "doors ",
    "7135": ") is ",
    "7136": "street",
    "7137": "have an ",
    "7138": "education ",
    "7139": "boo",
    "7140": "ropol",
    "7141": ". Bo",
    "7142": "made from ",
    "7143": "a bulleted list of ",
    "7144": "involves ",
    "7145": "delici",
    "7146": "ture of ",
    "7147": "estig",
    "7148": "NAT",
    "7149": "tourist ",
    "7150": "Gard",
    "7151": "Leagu",
    "7152": "top of the ",
    "7153": "court ",
    "7154": "its of ",
    "7155": "erate ",
    "7156": ".\n\nUser: Can you ",
    "7157": "Ant",
    "7158": "ese, ",
    "7159": "Fer",
    "7160": "theast ",
    "7161": "salt ",
    "7162": "Masters ",
    "7163": "Paris",
    "7164": "actor",
    "7165": ". Bec",
    "7166": "Ren",
    "7167": "Unit",
    "7168": "similar to ",
    "7169": "Ke",
    "7170": "significantly ",
    "7171": "Common ",
    "7172": "\n\nUser: Write a ",
    "7173": "supply ",
    "7174": "year-",
    "7175": ").\n\n",
    "7176": "revenue ",
    "7177": "Stor",
    "7178": "2 and ",
    "7179": "\n\nUser: Give me a list of ",
    "7180": "World Cup ",
    "7181": "AC",
    "7182": "wait",
    "7183": "certain",
    "7184": "ous, ",
    "7185": "Battle ",
    "7186": "sus ",
    "7187": "\nAlmond: P",
    "7188": "home to ",
    "7189": "coast ",
    "7190": "tically ",
    "7191": "deal ",
    "7192": "became the ",
    "7193": "Germany, ",
    "7194": "from this ",
    "7195": "source of ",
    "7196": "ect of ",
    "7197": "eld",
    "7198": "storm",
    "7199": "eastern ",
    "7200": "es. S",
    "7201": "ated the ",
    "7202": "charging ",
    "7203": "decor",
    "7204": "Dan",
    "7205": "Il",
    "7206": "ently, ",
    "7207": "rights ",
    "7208": "response ",
    "7209": "Not",
    "7210": "history, ",
    "7211": "reti",
    "7212": "cle, ",
    "7213": "wind: ",
    "7214": "members of the ",
    "7215": "?\nAlmond: Some ",
    "7216": "Europe ",
    "7217": "leaves ",
    "7218": "tions of ",
    "7219": "gear ",
    "7220": "Cho",
    "7221": "bird ",
    "7222": "attack ",
    "7223": "one of the best ",
    "7224": "hamm",
    "7225": "ham ",
    "7226": "else ",
    "7227": "ery",
    "7228": "performanc",
    "7229": "8-",
    "7230": "helped ",
    "7231": ".\nThe ",
    "7232": "ent of the ",
    "7233": "development of ",
    "7234": ": C",
    "7235": "expen",
    "7236": "up, ",
    "7237": "safe ",
    "7238": "kick",
    "7239": "munic",
    "7240": "inside ",
    "7241": "girl",
    "7242": "fuel ",
    "7243": ".\n\nUser: In ",
    "7244": "You could ",
    "7245": "ollywood ",
    "7246": ".  \n\n",
    "7247": "ference ",
    "7248": "mammal",
    "7249": "Sea ",
    "7250": "a, S",
    "7251": "food, ",
    "7252": "clean ",
    "7253": "centr",
    "7254": "opposite ",
    "7255": "meat",
    "7256": "invest ",
    "7257": "communication ",
    "7258": "ext, ",
    "7259": "you might ",
    "7260": "transl",
    "7261": "ory of ",
    "7262": "Wond",
    "7263": "refri",
    "7264": "swimming ",
    "7265": "ance to ",
    "7266": "Andre",
    "7267": "DP",
    "7268": "light, ",
    "7269": "steps ",
    "7270": ".  In ",
    "7271": "which was ",
    "7272": "Kn",
    "7273": "Summer ",
    "7274": "Lincol",
    "7275": "the benef",
    "7276": "'m ",
    "7277": "clas",
    "7278": "Mexico ",
    "7279": "continent",
    "7280": "shopp",
    "7281": "attend",
    "7282": "near the ",
    "7283": "speech ",
    "7284": "oon",
    "7285": "ry, ",
    "7286": "drop ",
    "7287": "feet",
    "7288": "FD",
    "7289": "ker ",
    "7290": "Cath",
    "7291": "4) ",
    "7292": "frame",
    "7293": "link",
    "7294": "depending on the ",
    "7295": "Dre",
    "7296": "fruits ",
    "7297": "journ",
    "7298": "is it ",
    "7299": "7-",
    "7300": "addition to ",
    "7301": "stop",
    "7302": "edge ",
    "7303": "mainly ",
    "7304": "food and ",
    "7305": "Fantas",
    "7306": "lor",
    "7307": "icop",
    "7308": "lef",
    "7309": "Philipp",
    "7310": "Elizabeth ",
    "7311": "X-Fil",
    "7312": "poem",
    "7313": "needs to ",
    "7314": "whom ",
    "7315": "plet",
    "7316": "algorithm",
    "7317": "pair ",
    "7318": "fat ",
    "7319": "daugh",
    "7320": "notable ",
    "7321": ".\n\nUser: Who was ",
    "7322": "gun",
    "7323": "states",
    "7324": "Found",
    "7325": "and then ",
    "7326": "legis",
    "7327": "ement, ",
    "7328": "evalu",
    "7329": "yourself",
    "7330": "bow",
    "7331": "gold ",
    "7332": "woodwind: ",
    "7333": "that he ",
    "7334": "post ",
    "7335": "lit",
    "7336": "in the US",
    "7337": "exact",
    "7338": "aged ",
    "7339": "leg ",
    "7340": "36",
    "7341": "With",
    "7342": "in terms of ",
    "7343": "ess of ",
    "7344": "ches",
    "7345": "1 and ",
    "7346": "Record",
    "7347": "tions, ",
    "7348": "like",
    "7349": ". Although ",
    "7350": "ament",
    "7351": "2009",
    "7352": "plot ",
    "7353": "ed up ",
    "7354": "ar and ",
    "7355": "may also ",
    "7356": "dir",
    "7357": "utions ",
    "7358": "sign ",
    "7359": "Win",
    "7360": "both the ",
    "7361": "ically, ",
    "7362": "web ",
    "7363": "As a ",
    "7364": "EC",
    "7365": "adult ",
    "7366": "bus ",
    "7367": "up of ",
    "7368": "except ",
    "7369": "stadi",
    "7370": "AR",
    "7371": "pand",
    "7372": "identifi",
    "7373": "\"S",
    "7374": "ed.\nAlmond: ",
    "7375": "300 ",
    "7376": "mechanical ",
    "7377": "pull",
    "7378": "pull ",
    "7379": "Universe",
    "7380": "datas",
    "7381": "pleas",
    "7382": "osevel",
    "7383": "may have ",
    "7384": "to go ",
    "7385": "Nic",
    "7386": "Distric",
    "7387": "ing, the ",
    "7388": "station",
    "7389": "?\nAlmond: An ",
    "7390": "dry",
    "7391": "Time ",
    "7392": "standing ",
    "7393": "chor",
    "7394": "aging ",
    "7395": "transfer",
    "7396": "productiv",
    "7397": "rab",
    "7398": "Land",
    "7399": "shown ",
    "7400": "what are ",
    "7401": "IS ",
    "7402": "dead",
    "7403": "ij",
    "7404": "row ",
    "7405": "apl",
    "7406": "in a b",
    "7407": "Prime ",
    "7408": "liquid",
    "7409": "garden ",
    "7410": "die ",
    "7411": "finally ",
    "7412": "3-0",
    "7413": "ina",
    "7414": "addition, ",
    "7415": "peak",
    "7416": "m (",
    "7417": "fine ",
    "7418": "Columbi",
    "7419": "north ",
    "7420": "rib",
    "7421": "screen",
    "7422": "Eastern ",
    "7423": "Ron",
    "7424": ". J",
    "7425": "Spain ",
    "7426": "profess",
    "7427": "super ",
    "7428": "which the ",
    "7429": "Man ",
    "7430": "ecting ",
    "7431": "ology, ",
    "7432": "rule ",
    "7433": "Gor",
    "7434": "holiday",
    "7435": "Space ",
    "7436": "Dev",
    "7437": "billion",
    "7438": "Ukrain",
    "7439": "pupp",
    "7440": "friends and ",
    "7441": "equival",
    "7442": "discovery ",
    "7443": "crow",
    "7444": "Green",
    "7445": "els ",
    "7446": "\n\nUser: Given a reference text about ",
    "7447": "influential ",
    "7448": "ison ",
    "7449": "Republican ",
    "7450": "process of ",
    "7451": "letter ",
    "7452": "instrument is string or woodwind: ",
    "7453": "popularity ",
    "7454": "ity, and ",
    "7455": "premi",
    "7456": "medium ",
    "7457": "Light",
    "7458": "in its ",
    "7459": "Devel",
    "7460": "wear",
    "7461": "Formul",
    "7462": "adding ",
    "7463": "feeling ",
    "7464": "Kenn",
    "7465": "eral",
    "7466": "Corpor",
    "7467": "in 194",
    "7468": "rand",
    "7469": "ertain ",
    "7470": "nearby ",
    "7471": "ers: ",
    "7472": "ights ",
    "7473": "banking ",
    "7474": "ing\n- ",
    "7475": "as much ",
    "7476": "of the best ",
    "7477": "ug ",
    "7478": "structural ",
    "7479": "century ",
    "7480": "milk, ",
    "7481": "Targ",
    "7482": "classifi",
    "7483": "rest of the ",
    "7484": "should",
    "7485": "dollar",
    "7486": "tocurr",
    "7487": "ther, ",
    "7488": "todd",
    "7489": "in B",
    "7490": ".C",
    "7491": "refriger",
    "7492": "prob",
    "7493": "Star War",
    "7494": "ion of ",
    "7495": "conom",
    "7496": "an un",
    "7497": "visual ",
    "7498": "chrom",
    "7499": "versi",
    "7500": "benefit ",
    "7501": ". \n\nThe ",
    "7502": "remote ",
    "7503": "yri",
    "7504": "ff ",
    "7505": "e) ",
    "7506": "Hond",
    "7507": "Toyot",
    "7508": "world, ",
    "7509": "driven ",
    "7510": "for its ",
    "7511": "factor ",
    "7512": "li ",
    "7513": "better than ",
    "7514": "anist",
    "7515": "\nAlmond: C",
    "7516": "alone ",
    "7517": "Wis",
    "7518": "length ",
    "7519": "ories",
    "7520": "Pay",
    "7521": "which of these ",
    "7522": "Afgh",
    "7523": "think",
    "7524": ". At ",
    "7525": "SU",
    "7526": "met ",
    "7527": "Is ",
    "7528": "traffic ",
    "7529": "six",
    "7530": "ivor",
    "7531": "all-",
    "7532": "ao",
    "7533": "balanc",
    "7534": "Indian",
    "7535": "organization ",
    "7536": "ed after ",
    "7537": "information",
    "7538": "thers ",
    "7539": "family, ",
    "7540": "preme ",
    "7541": "urch ",
    "7542": "NBA",
    "7543": "Ori",
    "7544": "circu",
    "7545": "shows ",
    "7546": "Good ",
    "7547": "lives ",
    "7548": "connect ",
    "7549": "list.\nAlmond: ",
    "7550": "TV",
    "7551": ".\n* ",
    "7552": "drum ",
    "7553": "anj",
    "7554": "trop",
    "7555": "sys",
    "7556": "\u00e2\u0080\u00a2\t",
    "7557": "0000",
    "7558": "PSYoung",
    "7559": "07:",
    "7560": "served as the ",
    "7561": "oral ",
    "7562": "aggres",
    "7563": "largely ",
    "7564": "ison",
    "7565": "es on the ",
    "7566": "sky",
    "7567": "ies to ",
    "7568": "i and ",
    "7569": "Think ",
    "7570": "Formula ",
    "7571": "-to-",
    "7572": "phenom",
    "7573": "fore, ",
    "7574": "red, ",
    "7575": "Alexander ",
    "7576": "Rang",
    "7577": "console ",
    "7578": "onic",
    "7579": "low-",
    "7580": "such a ",
    "7581": "a sol",
    "7582": "worth",
    "7583": "using bullet",
    "7584": "woman ",
    "7585": "considered a ",
    "7586": "corporate ",
    "7587": "a very ",
    "7588": "teen ",
    "7589": "path ",
    "7590": "3rd ",
    "7591": "kel",
    "7592": "oky",
    "7593": "ently",
    "7594": "hundreds of ",
    "7595": "cat, ",
    "7596": "belong",
    "7597": "\n8",
    "7598": "weapon",
    "7599": "straight ",
    "7600": "caused ",
    "7601": "meaning ",
    "7602": "improve your ",
    "7603": "El ",
    "7604": "citizen",
    "7605": "el M",
    "7606": "as and ",
    "7607": "established ",
    "7608": "Blu",
    "7609": "fish, ",
    "7610": "Captain ",
    "7611": "earning ",
    "7612": "forms of ",
    "7613": "ented ",
    "7614": "Australia",
    "7615": "shaped ",
    "7616": "distinct ",
    "7617": "pound",
    "7618": "2008",
    "7619": "2013",
    "7620": "opponent",
    "7621": "much",
    "7622": "eed",
    "7623": "(B",
    "7624": "didn't ",
    "7625": "architecture ",
    "7626": "function ",
    "7627": ".\n\nUser: From the passage provided, extract the ",
    "7628": "uber",
    "7629": "below, ",
    "7630": "Marath",
    "7631": "Street ",
    "7632": "over time",
    "7633": "ed. The ",
    "7634": "ent in ",
    "7635": "is a good ",
    "7636": "es, such as ",
    "7637": "aired ",
    "7638": "Describe ",
    "7639": "ates the ",
    "7640": "demon",
    "7641": "such as a ",
    "7642": "k and ",
    "7643": ".\n\nUser: Tell me whether these are ",
    "7644": "Camp",
    "7645": "1984",
    "7646": "ullet ",
    "7647": "Ethiop",
    "7648": "mass",
    "7649": "a to ",
    "7650": "prise ",
    "7651": "pan ",
    "7652": "bever",
    "7653": "figure ",
    "7654": "Hot",
    "7655": "bicycle ",
    "7656": "entry ",
    "7657": "af ",
    "7658": "asked ",
    "7659": "Techn",
    "7660": "equal ",
    "7661": "after",
    "7662": "interested in ",
    "7663": ".  If ",
    "7664": "meal",
    "7665": "inot ",
    "7666": "hole ",
    "7667": "quantum ",
    "7668": "Use",
    "7669": "K), ",
    "7670": "3-30",
    "7671": "diplom",
    "7672": "21 ",
    "7673": "request ",
    "7674": "ing.\n\n",
    "7675": "ings of ",
    "7676": "\nAlmond: D",
    "7677": "Be ",
    "7678": "Love ",
    "7679": "is the founder of ",
    "7680": "bottom ",
    "7681": "ful and ",
    "7682": "plic",
    "7683": "tle ",
    "7684": "audio ",
    "7685": "Cros",
    "7686": "oud",
    "7687": "AB",
    "7688": "sampl",
    "7689": "kinds of ",
    "7690": "ine and ",
    "7691": "\n\nUser: Given this paragraph about ",
    "7692": "\n\u00e2\u0080\u00a2 ",
    "7693": "It was ",
    "7694": "trou",
    "7695": "drinking ",
    "7696": "chemical ",
    "7697": "acid ",
    "7698": "ities, ",
    "7699": "fixed ",
    "7700": "throw ",
    "7701": "1st ",
    "7702": "to play ",
    "7703": "perman",
    "7704": "known for its ",
    "7705": "it is not ",
    "7706": "gene ",
    "7707": "websit",
    "7708": "table",
    "7709": "truly ",
    "7710": "many other ",
    "7711": "io",
    "7712": "making it ",
    "7713": "passeng",
    "7714": "those who ",
    "7715": "it can be ",
    "7716": "fab",
    "7717": "accid",
    "7718": "Year ",
    "7719": "sure to ",
    "7720": "Three ",
    "7721": "plain ",
    "7722": "grew ",
    "7723": "ability of ",
    "7724": "I will ",
    "7725": "eye ",
    "7726": "desp",
    "7727": "stone ",
    "7728": "Pok",
    "7729": "parall",
    "7730": "increasing ",
    "7731": "country, ",
    "7732": "gett",
    "7733": "DC or ",
    "7734": "consec",
    "7735": "Offic",
    "7736": "savings ",
    "7737": "Jordan ",
    "7738": "customers ",
    "7739": ". My ",
    "7740": "based on their ",
    "7741": "rect ",
    "7742": "Dark ",
    "7743": "chocolate ",
    "7744": "reward",
    "7745": "Nev",
    "7746": "performing ",
    "7747": "city in ",
    "7748": "universi",
    "7749": "functional ",
    "7750": "orph",
    "7751": "strength ",
    "7752": "most recent ",
    "7753": "q ",
    "7754": "cash ",
    "7755": "Financ",
    "7756": "Prize ",
    "7757": "?\nAlmond: R",
    "7758": "balance ",
    "7759": "prior",
    "7760": "strok",
    "7761": "\n\nUser: Where ",
    "7762": "ternal ",
    "7763": "all over the ",
    "7764": "Lord of the R",
    "7765": "Royal ",
    "7766": "weak",
    "7767": "called \"",
    "7768": "buck",
    "7769": "who was ",
    "7770": "gros",
    "7771": "cere",
    "7772": "Juli",
    "7773": "Netfli",
    "7774": "Pel",
    "7775": "bulleted ",
    "7776": "capital",
    "7777": ". Take ",
    "7778": "Yellow",
    "7779": "ation. The ",
    "7780": "recogniz",
    "7781": "baseball",
    "7782": "Max",
    "7783": "expect ",
    "7784": "Based on this ",
    "7785": "use to ",
    "7786": "gained ",
    "7787": "navig",
    "7788": "Basketball ",
    "7789": "ism, ",
    "7790": "fal",
    "7791": "refers to the ",
    "7792": "ato, ",
    "7793": "theat",
    "7794": "se, ",
    "7795": "unn",
    "7796": "crete ",
    "7797": "2023-0",
    "7798": "2023-03-30",
    "7799": "2023-03-30T",
    "7800": "2023-03-30T07:",
    "7801": "+0000",
    "7802": "+0000: [",
    "7803": "GC (",
    "7804": "[PSYoung",
    "7805": "[PSYoungGen: ",
    "7806": "secs] [",
    "7807": "secs] [Tim",
    "7808": "secs] [Times: ",
    "7809": "secs] [Times: user",
    "7810": "secs] [Times: user=",
    "7811": "sys=",
    "7812": "real=",
    "7813": "| MVP: ",
    "7814": "tour ",
    "7815": "of the United States ",
    "7816": "Independ",
    "7817": "religious ",
    "7818": "onym",
    "7819": "Act",
    "7820": "ranked ",
    "7821": "Van ",
    "7822": "\" and \"",
    "7823": "it will ",
    "7824": "Pear",
    "7825": "illy ",
    "7826": "internet ",
    "7827": "ission ",
    "7828": "aes",
    "7829": "2016 ",
    "7830": "between two ",
    "7831": "inten",
    "7832": "itely ",
    "7833": "padd",
    "7834": "s\n3",
    "7835": "Pu",
    "7836": ".\n\nUser: Who are the ",
    "7837": "es by ",
    "7838": "Music ",
    "7839": "ers in the ",
    "7840": "referenc",
    "7841": "result ",
    "7842": "safety ",
    "7843": "bled",
    "7844": "ter and ",
    "7845": "California, ",
    "7846": "agon ",
    "7847": "elin",
    "7848": "coin",
    "7849": "it for ",
    "7850": "a, the ",
    "7851": "review ",
    "7852": "peanut ",
    "7853": "hood",
    "7854": "35 ",
    "7855": "and what ",
    "7856": "provinc",
    "7857": "-up ",
    "7858": "LL",
    "7859": "len",
    "7860": "New Zealand",
    "7861": "victor",
    "7862": "aug",
    "7863": "south",
    "7864": "urban ",
    "7865": "ai, ",
    "7866": "close to ",
    "7867": "FA",
    "7868": "deliver ",
    "7869": "at your ",
    "7870": "DC or Marvel ",
    "7871": "Young ",
    "7872": "ancy ",
    "7873": "Tal",
    "7874": ".\n\nUser: Which of the following are ",
    "7875": "game, ",
    "7876": "Mul",
    "7877": "ware",
    "7878": "olive ",
    "7879": "cannot be ",
    "7880": "ing is a ",
    "7881": "alay",
    "7882": "; the ",
    "7883": "hear ",
    "7884": "words of ",
    "7885": "ovas",
    "7886": "mist",
    "7887": "dinner ",
    "7888": "are, ",
    "7889": "bacter",
    "7890": "metric",
    "7891": "Amster",
    "7892": "sandwich",
    "7893": "strength",
    "7894": "pedi",
    "7895": "that have ",
    "7896": "dial",
    "7897": "a more ",
    "7898": "mand",
    "7899": "56",
    "7900": "years of ",
    "7901": "ical",
    "7902": "argar",
    "7903": "meal ",
    "7904": "a T",
    "7905": "visiting ",
    "7906": "yram",
    "7907": "ul ",
    "7908": "cin",
    "7909": "role in ",
    "7910": "nickn",
    "7911": "Both ",
    "7912": "Spanish",
    "7913": "a reference text about the ",
    "7914": "\u00c3\u00a9 ",
    "7915": "anth",
    "7916": "Beng",
    "7917": "bell",
    "7918": "\n- L",
    "7919": "elly ",
    "7920": "'ll ",
    "7921": "Orang",
    "7922": "mill",
    "7923": "toil",
    "7924": "over a ",
    "7925": "s include ",
    "7926": "scop",
    "7927": "tooth",
    "7928": "\n\nUser: Who is the ",
    "7929": "smok",
    "7930": "alli",
    "7931": "of them ",
    "7932": "isol",
    "7933": "haz",
    "7934": "Pad",
    "7935": "Pen",
    "7936": "pack ",
    "7937": "brah",
    "7938": "is domestic",
    "7939": "Galax",
    "7940": "gal",
    "7941": "shall ",
    "7942": "\n2023-03-30T07:",
    "7943": "orn",
    "7944": "Far",
    "7945": "contro",
    "7946": "the results in ",
    "7947": "\nAlmond: R",
    "7948": "arrang",
    "7949": "evidence ",
    "7950": "so many ",
    "7951": "is the founder of House ",
    "7952": "45 ",
    "7953": ".\nAlmond: H",
    "7954": "is typically ",
    "7955": "objective ",
    "7956": "ateful ",
    "7957": "Anton",
    "7958": ". Here are ",
    "7959": "pine",
    "7960": "strain",
    "7961": "straw",
    "7962": "has won ",
    "7963": "High",
    "7964": "1950",
    "7965": "if they ",
    "7966": "in 197",
    "7967": "Pur",
    "7968": "s. If ",
    "7969": "er, the ",
    "7970": "Dou",
    "7971": "letter",
    "7972": "ching ",
    "7973": ". Un",
    "7974": "turned ",
    "7975": "girl ",
    "7976": "fortun",
    "7977": "she was ",
    "7978": "with their ",
    "7979": "then the ",
    "7980": "?\nAlmond: 1",
    "7981": "budget ",
    "7982": "s.\n\nUser: What is the ",
    "7983": "battery ",
    "7984": "osyst",
    "7985": "bed ",
    "7986": "ures",
    "7987": "Place ",
    "7988": "sequence ",
    "7989": "ideas",
    "7990": "slic",
    "7991": "vince ",
    "7992": "sales ",
    "7993": "e. He ",
    "7994": "busines",
    "7995": "acted ",
    "7996": "in some ",
    "7997": "goals ",
    "7998": "recre",
    "7999": "teams in the ",
    "8000": "buying ",
    "8001": "ibi",
    "8002": "us to ",
    "8003": "pilot",
    "8004": "attribut",
    "8005": "demand",
    "8006": "weather",
    "8007": "Premier League ",
    "8008": "draw ",
    "8009": "characters belong to ",
    "8010": "characters belong to DC or Marvel ",
    "8011": "characters belong to DC or Marvel Universe",
    "8012": "characters belong to DC or Marvel Universe? ",
    "8013": "University",
    "8014": "passage",
    "8015": "played in ",
    "8016": "you\u00e2\u0080\u0099re ",
    "8017": "ux ",
    "8018": "ating a ",
    "8019": "150 ",
    "8020": "FIFA ",
    "8021": "Washington",
    "8022": "brow",
    "8023": "lights ",
    "8024": "one-",
    "8025": "danger",
    "8026": "Chev",
    "8027": "Sub",
    "8028": "flexibil",
    "8029": "fourth ",
    "8030": "onion",
    "8031": "ek, ",
    "8032": "Num",
    "8033": "s is a ",
    "8034": "Solar ",
    "8035": "Financial ",
    "8036": "expected ",
    "8037": "remaining ",
    "8038": "ardi",
    "8039": "hill ",
    "8040": "champ",
    "8041": "occup",
    "8042": ": \u00e2\u0080\u009c",
    "8043": "Med",
    "8044": "eleph",
    "8045": "regist",
    "8046": "server",
    "8047": "in our ",
    "8048": "extract ",
    "8049": "28 ",
    "8050": "mou",
    "8051": "erson ",
    "8052": "muscl",
    "8053": "Pres",
    "8054": "skin ",
    "8055": "liver ",
    "8056": "much more ",
    "8057": "not only ",
    "8058": "of an ",
    "8059": "designated ",
    "8060": "Four",
    "8061": "passed ",
    "8062": "energy",
    "8063": "angle",
    "8064": "2018 ",
    "8065": "hope ",
    "8066": "Bear",
    "8067": "uddh",
    "8068": "strike ",
    "8069": "sculptor ",
    "8070": "holiday ",
    "8071": "oo ",
    "8072": "if I ",
    "8073": "mail",
    "8074": "flat",
    "8075": "communicate ",
    "8076": "vegan ",
    "8077": "Mill",
    "8078": "Water",
    "8079": "Resort",
    "8080": "Useful",
    "8081": "secs] \n2023-03-30T07:",
    "8082": "lever",
    "8083": "freedom ",
    "8084": "ose the ",
    "8085": "tory ",
    "8086": "dimensional ",
    "8087": "fresh",
    "8088": "Si",
    "8089": "wheel ",
    "8090": "exactly ",
    "8091": "seat ",
    "8092": "es, or ",
    "8093": "A Song of Ice and Fire, who ",
    "8094": "A Song of Ice and Fire, who is the founder of House ",
    "8095": "juice ",
    "8096": "s are a ",
    "8097": "are a ",
    "8098": "is more ",
    "8099": "Roll",
    "8100": "akist",
    "8101": "levels of ",
    "8102": "bean",
    "8103": "ox ",
    "8104": "\nF",
    "8105": "tube ",
    "8106": "subject ",
    "8107": "stage ",
    "8108": ".\n\nUser: Classify the following ",
    "8109": "\n\nUser: Extract ",
    "8110": "full of ",
    "8111": "blue",
    "8112": "cow",
    "8113": "used on ",
    "8114": "es include ",
    "8115": "cit",
    "8116": ". Make ",
    "8117": "disrup",
    "8118": "e\n\nUser: ",
    "8119": "atial ",
    "8120": "needs to be ",
    "8121": "eline ",
    "8122": "PG",
    "8123": "toward ",
    "8124": "build a ",
    "8125": "has also ",
    "8126": "impres",
    "8127": ". Both ",
    "8128": "branch ",
    "8129": "Gand",
    "8130": "teas",
    "8131": "ers can ",
    "8132": "period of ",
    "8133": "Sun ",
    "8134": "wonder",
    "8135": "176",
    "8136": "Econom",
    "8137": "seek ",
    "8138": "consecutive ",
    "8139": "programming languag",
    "8140": "e is a ",
    "8141": "Python ",
    "8142": ", Bl",
    "8143": "iami ",
    "8144": "!\n\nUser: ",
    "8145": "Taylor S",
    "8146": "focuses ",
    "8147": "es as ",
    "8148": "field of ",
    "8149": "bad",
    "8150": "relative ",
    "8151": "competitive ",
    "8152": "argue ",
    "8153": "ations in ",
    "8154": "Little ",
    "8155": ". Dis",
    "8156": "BI",
    "8157": ".\n\nUser: What does ",
    "8158": "represent ",
    "8159": "raise ",
    "8160": "Sn",
    "8161": "style of ",
    "8162": "Wall",
    "8163": "of-",
    "8164": "Genes",
    "8165": "speak ",
    "8166": "riot",
    "8167": "\nG",
    "8168": "Modern ",
    "8169": "ses ",
    "8170": "suggest ",
    "8171": "considered the ",
    "8172": "ston",
    "8173": "describe the ",
    "8174": "apply ",
    "8175": "these are ",
    "8176": "ks, ",
    "8177": "Ele",
    "8178": "ument ",
    "8179": "Tiger ",
    "8180": ". Finally, ",
    "8181": "s\n\n",
    "8182": "wake ",
    "8183": "Jr",
    "8184": "agh",
    "8185": "s for the ",
    "8186": "bridg",
    "8187": "bio",
    "8188": "Mary ",
    "8189": "Croati",
    "8190": "name of ",
    "8191": "Pass"
}